/**
  ******************************************************************************
  * @file    network_data_params.c
  * @author  AST Embedded Analytics Research Platform
  * @date    2025-06-12T00:53:01+0800
  * @brief   AI Tool Automatic Code Generator for Embedded NN computing
  ******************************************************************************
  * Copyright (c) 2025 STMicroelectronics.
  * All rights reserved.
  *
  * This software is licensed under terms that can be found in the LICENSE file
  * in the root directory of this software component.
  * If no LICENSE file comes with this software, it is provided AS-IS.
  ******************************************************************************
  */

#include "network_data_params.h"


/**  Activations Section  ****************************************************/
ai_handle g_network_activations_table[1 + 2] = {
  AI_HANDLE_PTR(AI_MAGIC_MARKER),
  AI_HANDLE_PTR(NULL),
  AI_HANDLE_PTR(AI_MAGIC_MARKER),
};




/**  Weights Section  ********************************************************/
AI_ALIGNED(32)
const ai_u64 s_network_weights_array_u64[13605] = {
  0x3f835ae3bbc5f2aeU, 0xbfa3ad033f44f569U, 0xbf367fc9bf964108U, 0x3f2585af3e310ac6U,
  0x3e2b42aebf476912U, 0xbe54d8903d943aa3U, 0x3f10766b3dcd8126U, 0x3cd04f6f3ee9d356U,
  0xbdb5ee493e39573bU, 0x3d8e8d9f3f4a784fU, 0x3f9100f6bfac7a5eU, 0xbfe87d063e302d9aU,
  0xbf4416b93fa01156U, 0xbf02c091bfa204b1U, 0x3fadc7df3ee5c175U, 0xbf7ed340bffa6f50U,
  0x3e7d2b293e9ed460U, 0xbf246473bfd4399fU, 0xbdb0f15a3eaa47f3U, 0x3e8c73d3bee5ee25U,
  0xbf625ecbbd872aadU, 0x3f5590be3e864a1fU, 0x3ed895923e468f5bU, 0x3ecba1d23d26897dU,
  0x3ea59741bebcbb19U, 0x3e6dca3e3ec406b3U, 0x3e7635d13e4695ffU, 0x3fad028d3f7ec970U,
  0xbefaa2953f4f63a1U, 0x3e139339bebb3f4fU, 0xbf8e827dbfb899d0U, 0x3e062ad3bf4836e0U,
  0xbf2982de3f14c413U, 0x3f1faa13beeb2ae4U, 0xbf19df7c3f0bd164U, 0x3e56e11e3e7a896bU,
  0xbcb0b27c3ab203c9U, 0xbe523001be49419cU, 0xbe374fc63ebfe10fU, 0x3e820a79bd529753U,
  0xbf85bb633d88f3e9U, 0x3e926155beaf3972U, 0x3f5e1a47bf296d6cU, 0x3e5cb04a3f12f7bdU,
  0xbf42d1943ec60e6eU, 0x3b4be2a73eadc20aU, 0x3e5fb1d6bee779acU, 0xbe9bfba13f2f29d2U,
  0x3f0c23523e0c73abU, 0x3b56d7ba3eb0cf84U, 0x3ec7aedebed1c66dU, 0x3ee2f793bf244ee9U,
  0x3f03ff333eda682dU, 0x3d0b0b12bf0ffd70U, 0xbf7bf0603efc7495U, 0x3f2610a23ebe8ed5U,
  0x3da1a164bf23fdc3U, 0xbdc046cb3dea4fdaU, 0xbeb451413d204110U, 0x3e0b7cba3ec0c74fU,
  0x3e6cb0483eb32ffcU, 0x3e30be4dbe205cd3U, 0xbeca6f6f3eca1fc4U, 0xbffcb4dfbf84ae00U,
  0xbff60155bf8b74dfU, 0x3f4081febee467c3U, 0x3fa2df05be328268U, 0x3e1f34593f8ea73dU,
  0x3ea326fbbd8ccc83U, 0x3e5348553ee52540U, 0x3e985f263e7c51bdU, 0xbee8ab5a3cb89373U,
  0xbe933545bb166024U, 0x3ed3ac303e73ada4U, 0xbee6e393be59a529U, 0xbddb9943bdc05b71U,
  0xbc61012e3c8d8425U, 0xbbe3dc41bec8f1b8U, 0xbe4ceca1bd666a86U, 0xbe9e0b533de5ad20U,
  0x3c4aed2c3c5aeb46U, 0x3e1ee0e23d443c2dU, 0x3dfe9b57be25f313U, 0xbd4c0da93c1b0267U,
  0xbd879b7e3b2e1f70U, 0x3dc4752dbe3faceeU, 0x3bc504aa3af4735fU, 0xbd6f9a9f3ca15e29U,
  0x3d57f81f3d5dd5a2U, 0x3d6051213e1c2a66U, 0x3d3388293c9bbcbdU, 0xbd6dcee4bdcf613aU,
  0x3cd502a1bd7f4fbdU, 0xbd7943163c9ea05eU, 0xbd0021fcbdea9ed8U, 0xbe2187fdbe7f707eU,
  0x3dcfb78cbd422bbeU, 0x3ddd620f3dd2632cU, 0x3e1cdd78bd931b82U, 0x3cfa0d5c3c710c0dU,
  0xbdae4ba1be0359e4U, 0xbc2c4c3ebe2cf4eaU, 0x3c6f491dbe32e9eeU, 0x3e613b493dca85f0U,
  0xbd9225a3bc837e62U, 0xbd827bf5bdbf91c6U, 0xbd4834993e41068bU, 0xbbfb902ebd5ed1e4U,
  0xbca4d8d63ce8d043U, 0x3d906a9dbdfcca2eU, 0xbdf55d86bbfba96fU, 0x3ca4d1d23c67538eU,
  0x3e09795abe31c72fU, 0x3d6771be3dd3fe32U, 0xbd3162ebbe477d8eU, 0x3e0b29a0bcfff9baU,
  0xbe4816d6be820521U, 0x3de141233c5fe399U, 0xbd9d70e83e222713U, 0xbd6b39053c4447d3U,
  0xbdb03e29be32e66dU, 0xbd09a2b0bd8f600dU, 0xbe9b8dedbe28e44cU, 0xba4490aebe29dbf1U,
  0x3d940ebcbd892a69U, 0xbe30478bbde75b4fU, 0xba71ef1a3dd5ca54U, 0xbe2714a1be1dd6f7U,
  0xbeb68264be02512bU, 0xbde1b34abe9e309aU, 0xbe4a7642bdc25f87U, 0x3c872a383db1069bU,
  0x3e01abb5bdb99034U, 0xbdcbd19a3dbd12ccU, 0xbda1e245bd690358U, 0xbeb40261be2a4a00U,
  0x3c9ce4d4bb1c33bfU, 0xbda4d287bd1ec67aU, 0xbe072af2be29258aU, 0x3c8ee035be0b6422U,
  0x3e2fa347bd995187U, 0x3d6d47a6bcfd3729U, 0x3e154d983db3b130U, 0xbc0020afbe103f9dU,
  0xbe1e8ef7bd5b6bacU, 0x3b18c0423d9cc107U, 0xbdc506773bd241e5U, 0x3ddc6ec5bca2cbe0U,
  0xbe057d8c3baff1b7U, 0xbdf89a4abd6b30baU, 0xbd569d8abe2dcf11U, 0x3d30db24bde3be90U,
  0x3daa6c1fbdcd46ddU, 0x3d002a553d7238c3U, 0x3bfe0eda3d540042U, 0xbdc568a1bcc4c5d1U,
  0x3d0dfa23bd1a8f87U, 0xbcc275e7bcd94edaU, 0x3e04c50e3c989b11U, 0x3d30c8fc3d46b7d4U,
  0x3db43435bc3838b6U, 0xbc95d19d3e2d2b09U, 0xbe5d2dddbcd2308dU, 0xbdc51bf3be4e434bU,
  0x3ba9ab2a3d0e15e8U, 0x3b546b973b8303ebU, 0xbdbaded03d680de1U, 0xbe2366ecbd9d3ce7U,
  0xbddaf12dbe56fa99U, 0xbd975940bdb5dcd4U, 0xbcd26a72bcb7829fU, 0xbcc83558bcaeae85U,
  0xbd337439bd919656U, 0xbd926d3ebc166d7fU, 0xbd045717bdf5f917U, 0xbdca0577bc8bd1dbU,
  0xbcbe588cbd5c7a04U, 0xbcb84a1ebda2b76fU, 0xbd9d8dfdbdc6a88bU, 0x3c491b73bca54b7aU,
  0xbd2a77dcbc1b1093U, 0xbce54986bdde11bdU, 0x3d049e55bd6aa24dU, 0xbe0992b7bca4aee9U,
  0xbd1803bebcbf59f8U, 0xbce6f0adbca0a2d0U, 0xbb81484f3d2478a0U, 0x3d90940a3da7f665U,
  0x3d6547383df75e87U, 0x3d2ce06d3d747647U, 0x3dd22c533ac04da0U, 0x3d223287bc022c86U,
  0x3c90f4c9bccd3ff9U, 0x3d63f6653c06118dU, 0x3d65a6ff3cd588bcU, 0x3dc577d23e2a765eU,
  0xbd66efcd3d8b853cU, 0xbd01343cbbde1c05U, 0x3c856c1e3d104716U, 0xbd3868ba3d478c42U,
  0xbdf7e7b2bd9eefe3U, 0x3db43cbebb1dd3c6U, 0x3df5097c3dfa9d8aU, 0xbcb9faedbd02ced7U,
  0x3d47240a3ce1e72dU, 0x3d3e9f743d1859a2U, 0xbe492868bd1e1bafU, 0xbd0caf5fbe90e466U,
  0x3d45fed83ca66ad9U, 0x3dce093b3deef921U, 0x3cffdf84bda46ffbU, 0x3d76fac63d313cf3U,
  0xbc75a6a53d920df9U, 0xbe10f49abe348e63U, 0x3d58cbf0bca91133U, 0x3db8bd3f3d39c715U,
  0xbda89894bd9a1377U, 0xba14cf763d16737dU, 0x3d3b9b343da297d8U, 0xbe043fe1bd44e774U,
  0x3d42e4c9bdb7d23fU, 0xbca80b66bd038a8eU, 0xbcee5dfd3d919a1eU, 0x3d07ac093d5e95f1U,
  0x3d7d38363cc47c67U, 0x3d8639623d95aaefU, 0xbc5f04f73cd23586U, 0xbc9ecc25bd9795ccU,
  0x3cbf72e93c102fb3U, 0x3c0c8b78bccd90e3U, 0x3c9d94623c9bd55dU, 0x3cf3a914bbcc8e35U,
  0xbb8fa12e3d3ebccaU, 0xbd447682bc23e8beU, 0xbd3adf2abd761196U, 0xbd4f23763c61585bU,
  0xbd041c62bcae73c5U, 0xbd1af4ae3d6ef959U, 0x3d8513e43dd6ca00U, 0x3ab874acbcad20b8U,
  0xbe29bc90bcd10074U, 0xbdcdee11bce6660eU, 0x3c2ed6f8bcb0115bU, 0xbdc846873bab7e9eU,
  0xbe787320be09c023U, 0xbe5f084fbe5d6850U, 0xbea9e77cbe9620abU, 0xbe336505be7761c2U,
  0xbc85ff2cbd9d0a9aU, 0xbcd0bf6dbc982f85U, 0x3cae3b7e3b78f10bU, 0xbd21755c3a1892c2U,
  0xbaabaeefbbe10ae6U, 0xbd170896bd95601fU, 0xbc031936bbe80ad4U, 0x3b327e483ccc9952U,
  0xbd50a489bc9853e6U, 0xbe557f093c6283beU, 0x3e0353e63d63e422U, 0xbb861f573d791375U,
  0xbd1167d7bd5e2c21U, 0xbd2b52e2bddcfc50U, 0x3c6e7dd63ba5b6c6U, 0xbdf8008cbdd4c1e0U,
  0xbda09546be074ca8U, 0x3c06809e3de14dbcU, 0xbe1c5828bd8e323dU, 0xbbca7a70be1bff79U,
  0xbc8ee2073c9d08c4U, 0xbd851352bc935de8U, 0xbe0e0275bd4b04ddU, 0xbd1f09efbd452d05U,
  0xbc86e91cbd447f79U, 0x3dd06083bd1f670fU, 0x3d2641e53c2a24bdU, 0xbaa8e347bc7bd519U,
  0xbd836a623d872f78U, 0x3d3a37643d6cd9ceU, 0x3d647ded3dfe3ba1U, 0x3e1e4a643d13400eU,
  0x3d92c8723e62004aU, 0xbc4edd5aba2a7e6eU, 0x3d51a0473cebb065U, 0x3e3e84023df303c9U,
  0x3eda0ad13d629723U, 0x3e05d97b3eb36102U, 0x3e484da23df00e57U, 0x3d25171b3def54c1U,
  0x3d5c52853c181ac9U, 0x3e3a9b963d751393U, 0x3e8a4caf3e88a20cU, 0x3ecd15cc3f06e448U,
  0x3dcb34ec3e35507dU, 0x3d86e3113d91871dU, 0xbc8f665f3de2b923U, 0x3e5cdb443d205854U,
  0x3da931913e432217U, 0x3f0b63863eabe1a2U, 0x3d8ba7c13e3589e8U, 0x3d05f4c73e1c5046U,
  0x3d6189f93df68315U, 0x3d414b82bc7f60f6U, 0x3e4638b73d8ca56eU, 0x3ead2bc63e1dfd3cU,
  0x3e1c32363e8bbde3U, 0x3d49989e3dfd6b6aU, 0xbacc030dbd178856U, 0x39db2ffc3d7b02c8U,
  0x3c5425f73c73bc5aU, 0x3e7be1123e38e198U, 0x3e4361393dae9343U, 0xbd87b37f3d2690b9U,
  0xbd5676febd30cd82U, 0x3de4016d3d0e41deU, 0xbc9d3427bc7bf46aU, 0x3dc58314bb4007baU,
  0x3dd0d2503e6a2630U, 0xbe489694be0f2e8eU, 0xbcea6eb2be09ccf5U, 0x3ca43a5abdd10bf9U,
  0x3bd02c79bbe20a96U, 0xbda5c98b3c965547U, 0xbb9ab404bb91f564U, 0xbebdc08bbd89f2ebU,
  0xbe4a1e5bbebf52d0U, 0xbdde3e06be4dbe1cU, 0xbb633dbb3bfabf20U, 0x3b5eb319bcbace85U,
  0xbc9f22e93c6f2ee5U, 0xbe1e141b3d12dc4aU, 0xbe319e2ebe13b7b4U, 0xbdb07577be261c81U,
  0xbd36d71cbde08a28U, 0xbcba1b35bbd1a5c3U, 0x3bf28e8dbbf3b7beU, 0x3a4ecb99b8571c80U,
  0xbbc694393cab9f96U, 0x3bacf4823d2a6699U, 0x3c243440bc9f1495U, 0xbbf9409b3c22a2f7U,
  0xbc77cfb4bb6fed78U, 0xbbfd504e3b59b3c0U, 0x3d8f86bebcf1adf4U, 0x3dfd3a9a3d92d0f2U,
  0x3da73aea3d5625f8U, 0x3b9e60a63d15f5f5U, 0x3acc5f11bc066e43U, 0xbd63c2acbd5f1aafU,
  0xbd394f21be139f0bU, 0xbdad1203be214a1aU, 0x3e5c091e3df96e4eU, 0x3d20155c3e431780U,
  0x3c54765c3d3f8c44U, 0xbb0b5b7d3c12dc60U, 0xbde9e356bd10d1a6U, 0xbe58ea8fbe90eccaU,
  0x3cda2ce9be01d3aeU, 0x3e4f79be3e71a987U, 0xbcfc9ee93d279f16U, 0x3cd881adbc88be7aU,
  0xbe55c8aebd0f5440U, 0xbda458a63d189046U, 0xbb4d8527be3cdd99U, 0x3e3e191d3e099e74U,
  0x3dc61e243e38cd22U, 0x3cec1275bdfc5c2aU, 0x39c9a4083ce0ea88U, 0xbe19d163bd278ed1U,
  0xbe37150cbe9bdb15U, 0x3e9421983e3d1f9cU, 0x3de086fd3c79e3ceU, 0x3c1f4ab13e242516U,
  0x3c9725ae3c5cd559U, 0xbdc18f5cbcd96ac8U, 0xbe927246be802fc8U, 0x3dccef28be855353U,
  0xbb8dc3bf3e9b937bU, 0x3dc780a93e0d8b7bU, 0xbb56cd81bcce1fdaU, 0x3e0b1582bd5b103cU,
  0xbe95048abdb4460cU, 0xbc8c38dcbe938035U, 0x3be5293fbd45818bU, 0x3d24168a3d3cd7dfU,
  0xbe1cf428bcb582f8U, 0xbd3da2deb8bca180U, 0xbd61a6e2bd413a9bU, 0xbe03b39abe20dd08U,
  0x3e0a65d2bde182d9U, 0xbd205821be3e0799U, 0xbdbcd3923cbeb7bbU, 0x3bd5553fbde2d764U,
  0xbd90f2bbbd1dae81U, 0xbd574cadbd122390U, 0xbdb6fcc63e8d1d36U, 0xbd49259b3c77f08fU,
  0xbe1f3903bd5629e6U, 0xbc9cbe06bded62b3U, 0x3bc03dcabca2a68dU, 0x3c82d8f13d304035U,
  0x3e1d1ec23c1a51b0U, 0xbd7ca0213dbe32a3U, 0xbe3334f4be93535aU, 0xbdce030ebe242a78U,
  0xb979d712bd24bcafU, 0xbc30f6c2bc731fffU, 0x3d734c60ba0ec090U, 0x3cc9c2f43db492f6U,
  0xbe697aeabd3452a2U, 0xbdcbe6abbe6e8d2eU, 0xbc9fbf8dbd533979U, 0xbc0a6a03bb025b37U,
  0xbc332d0d3c49550aU, 0xbd8ee1dab94ab7c1U, 0xbb0d695e3d436a22U, 0xbd719790bdb1779eU,
  0xbc577831bdd6de10U, 0xbcb3df013c315f79U, 0xbcb10611ba914e2eU, 0x3da7b6eebe3603d4U,
  0x3df0f81cbe5cbbe3U, 0xbdec9483bb8dc080U, 0xbe8cbe43be088ba9U, 0xbd3ac104be7b1ad5U,
  0xbccc188ebd46ed18U, 0xbe597f8cbe030e8dU, 0xbd3458933d678a3dU, 0x3d0902d03d2b125eU,
  0xbcbf5989bd90b31bU, 0xbddc7e4bbd640ae3U, 0xbe5415a8bdacec65U, 0xbd701efebcc43424U,
  0xbdafbf30be6ac721U, 0x3a94830bbe0fa9fdU, 0xbd103bf83cc17c92U, 0x3c582329bc9f5544U,
  0x3d2f28b73d8d06c4U, 0xbd29023bbda5ef59U, 0xbe8a460dbd8b844fU, 0xbd3e4953bda7232bU,
  0x3d0d55c3bc5f4572U, 0x3e17a0bd3da4423eU, 0x3e07873f3e0b11ccU, 0xbda6d91d3ce983e8U,
  0xbde37d293de45d77U, 0xbd2134ff3c2b3befU, 0xbd356147bdbe9ebbU, 0x3cd6270a3d196e43U,
  0x3e4d9f0c3de517baU, 0x3e1d0cba3e800a6aU, 0xbc52437ebd5a626cU, 0x3dd83f09be10d148U,
  0xbd7b3c9cbc18cce6U, 0x3b9492d7bd1b34aeU, 0xbd80a67bbdbe240eU, 0x3de5b47a3d4bb60eU,
  0x3d98a68f3e38ccefU, 0xbb9a782bbe30bd69U, 0xbd6845d9bd99dba4U, 0x3e0ea2483c876476U,
  0xbedb3a323d173e49U, 0xbd527bf6bdeda996U, 0x3e3d7a6f3dae807eU, 0xbda68c653e0389e8U,
  0x3d05be33bd6c6ab3U, 0x3dee53653d24e264U, 0xbe10ab243e37288dU, 0xbd8bb706be3d6d25U,
  0x3aca4f94bd875af3U, 0x3dcca44d3dec365cU, 0xbe1e423fbd238939U, 0x3d88b25f3caada75U,
  0x3d898ad03db84d47U, 0xbe46f9cdbe3fec14U, 0xbc3737d53d48e907U, 0x3d7d9e3f3d3b0666U,
  0x3970c0c93c8d06f5U, 0x3c53c075bdc31efeU, 0x3e4731283c6b6cffU, 0xbd4ee2b83d900cb0U,
  0x3b74bf403cb1e32eU, 0xbd8a1f3cbe2cf96cU, 0x3da5107f3da93096U, 0xbccf03153c9d23bfU,
  0x3d2025083e096968U, 0x3e31f3b43e0a6d4dU, 0xbe051032bbbd0fd5U, 0xbd29b24bbe0ef74bU,
  0xbd292c0cbdce1811U, 0x3ce6c887be1adb19U, 0xbdf248bdbc6252dfU, 0x3cce3a0b3d355e1fU,
  0xbd97caf83dccce9bU, 0xbd9661cabe220362U, 0xbdb5d588be4a2f11U, 0xbe94f8aabcc6e88fU,
  0xbcaf90e9bcf08a6fU, 0xbb375a423d8451deU, 0xbdc1683d3d48d26dU, 0xbde23dd0bcfd6f87U,
  0xbeab3711be29d606U, 0xbe3b196fbeca62e8U, 0xbc04aa95bd4c9916U, 0x3c258533bc0782dcU,
  0xbdea0b43bd5ffbbcU, 0xbe0292d0bd32013aU, 0xbd153103be5b007cU, 0xbe4f9490be07016eU,
  0xbd99ea77be155d29U, 0xbe3c32753c64155fU, 0xbde31cb3bd8ec762U, 0xbd8f4a41bcf83730U,
  0xbdab9ceebdbf526bU, 0xbd8b2523bddf09cfU, 0xbdca2193bdb5bd5fU, 0x3c21d4bebd3110e1U,
  0xbda102b1be91b74fU, 0x3c8e0705bce0c188U, 0xbc85f8b03d0984fbU, 0xbc850545bd326590U,
  0x3bf5866dbd118cf7U, 0xbe101d16bd3c81b7U, 0xbde85fefbcb99054U, 0x3b394ebe3d2f9461U,
  0x3c8eca943d1d4667U, 0x3d9ca2963da5620eU, 0x3d9650113db54938U, 0x3d405c083d4dfe68U,
  0xbd8b02d1bdd5fd27U, 0x3c8aab6dbd00faf7U, 0x3d46f97cbcdc626aU, 0x3da337f43d2217c8U,
  0x3e1313703da7abd8U, 0x3d89fd373e643eb5U, 0xbcfb2c913d61e5f3U, 0xbd49646dbd33acdaU,
  0x3cad9d703ce6932eU, 0x3ba652c73d1da78dU, 0xbdb429fabdccea10U, 0x3dd217c63d3500c3U,
  0x3da6627d3e00100bU, 0xbd1338743a21dcc7U, 0x3d7475db3d2239b0U, 0x3d3406743d3b9925U,
  0xbe73cd0cbd6d19d3U, 0xbc937be0be6aa25dU, 0x3d20e2e63d62ee86U, 0x3dce14ff3e10e109U,
  0x3da17abcbe529e2cU, 0x3d1ac53d3d0929e2U, 0xbd2914bb3d1045deU, 0xbdf1aaa2be9d34a2U,
  0x3daf1fefbd8b9a51U, 0x3df22a813d989d4aU, 0xbdcdec3a3bdc539fU, 0x3d182b16bcaed66dU,
  0xbb62a54e3dd49256U, 0xbe528cc5bd9c2162U, 0xbbc0e4c9be027710U, 0x3c435e2f3c9a4016U,
  0xbd5f0b333d8f6ca7U, 0x3cdf5c9bbd5890fcU, 0x3d956ba23d453a30U, 0x3c8493bb3cbe06bbU,
  0xbd41713fbd14fc38U, 0xbd1e0fc6bd8a09daU, 0x3dffde09bb9cb69eU, 0xbbe60c76bd3c92d9U,
  0x3bca951f3d731d4aU, 0x3cda3ff23bc18cb6U, 0xbcb40e703d45dd5cU, 0xbc4c3221bc922c5cU,
  0xbcdae78abd87f0d7U, 0xbe232f1dbc873dc5U, 0xbd04af71bcbcc704U, 0xbcd77a7d3c052493U,
  0x3d3be28b3e20691dU, 0x3d81d45e3d391767U, 0xbd911b9bbcc78fa4U, 0xbe0b19bfbd08d695U,
  0xbcb9f67abe3fbdc1U, 0xbd865191bd7c4f24U, 0xbe3dec40be21b41eU, 0xbdb0ca3fbe0e10afU,
  0xbe4031fbbcc416aeU, 0xbeb0ae98be9e5eaaU, 0xbb9d4133be3df08eU, 0x3cd38ae93d4a3f33U,
  0x3c0eb34b3c02511dU, 0x3d3174293d652554U, 0x3da2a6263d45eddfU, 0xbd9e643c3c95ccd8U,
  0x3cc3e9033c8780dbU, 0x3cf0401b3d2c5095U, 0x3e113296bd279110U, 0x3cacd69e3daa651aU,
  0x3d380de9bd4f8c38U, 0x3e07a8a23e501974U, 0xbe44652f3daac583U, 0x3d0f31babc677c5cU,
  0xbe7c9cec3ba96c9fU, 0xbec11fbfbe7a1befU, 0xbe901ddebe2bde4bU, 0xbc4d3bb3be5aa89eU,
  0x3c83e16bbe08f979U, 0xbe042a1cbdff2775U, 0xbd318622be954bddU, 0xbdbb2267be25d7f1U,
  0xbea2ca0abe3e2136U, 0xbdb00ef1bda2a203U, 0xbdfa9c84be06fd47U, 0x3d8d098fbe15da5dU,
  0xbdfab87fbe839f27U, 0xbda54ae93e1e83f7U, 0xbd8adb92be8748f2U, 0xbe502455bd9167f3U,
  0xbdb5d2dcbe752decU, 0xbe6f2368be0e0649U, 0xbe8e177bbdfb02feU, 0x3dbb7cbebed224e1U,
  0x3c07170d3d573f8fU, 0xbdfff029be80b2b9U, 0x3cbdbd55be766419U, 0xbe23f4503d7751c1U,
  0xbe237a2ebe8e8b2cU, 0xbeaafa443bb39a59U, 0xbdc42399bcf26613U, 0xbe956524be45179eU,
  0xbecdfa40bea62eb3U, 0xbe34f8f0bde397c8U, 0xbead7561beb9c961U, 0xbe4df480be63ae92U,
  0xbe9daa4fbdcb2d8eU, 0xbdd208d83dd4675aU, 0xbef5265abed10f7bU, 0xbe0ca833be8abc3bU,
  0xbef7e6fdbf021d77U, 0xbe3a6097be0fcec3U, 0x3c9d37963d41cd4dU, 0x3d00520fbe6d06f4U,
  0xbec5d49ebd97ba0bU, 0xbef77adebefe75ebU, 0xbedcb188bee8dcebU, 0x3d52099cbd436192U,
  0xbdb5256dbcb9bb0fU, 0xbe0a5cf2be397ca5U, 0xbdf7c228bdb94583U, 0xbd9f663bbe4e44b9U,
  0xbdad1734be149480U, 0x3d73cf9d3d537044U, 0xbdbea7c4bdeb2b08U, 0x3daa2e933b18a08eU,
  0x3d1fd44b3de4a813U, 0xbcfde1c63d820fe2U, 0x3ddc3b443ca17ab2U, 0xbced8f273e17a724U,
  0x3b937fefbd997511U, 0xbc8aaf84bdbf6193U, 0x3cdab8f3be162289U, 0x3d70921dbd863861U,
  0x3dd0f8393d8c0e8aU, 0x3e18b5c23e13bcd9U, 0x3dcd94883d39dc54U, 0x3ddb7c8b3d85f1a4U,
  0xbe946e4a3dd790d1U, 0x3dddd4a63cb13accU, 0xbd376e473d1bce87U, 0x3d10ecb4bb8f271bU,
  0x3ce23e8b3dd30a47U, 0xbe8e50bbbc02848dU, 0xbe6ff2eabeb687a2U, 0xbb4c8a943cf9feb5U,
  0x3d038dcfbc8586bcU, 0xbd344d8a3d491831U, 0xbe2ca9343c50b3c4U, 0xbdc6d888be122a11U,
  0x3d9b544fbe1845d3U, 0xbb6088253c842e13U, 0xbdcd80c63c58d5a4U, 0x3d8572c3bda1bd07U,
  0xbdbd16363cccae3dU, 0xbce37463bc8d8bdcU, 0xbe199086bccc894aU, 0xbd8e8178bc84b886U,
  0xb82a9c713c873cbfU, 0xbd827911bd928d9cU, 0x3cf002a0bd9dbe80U, 0xbd4a392dbcc04b62U,
  0x3db869a5bd9b9867U, 0x3d3bad8b3ac8cf02U, 0xbdd15332bd02d053U, 0xbdfc5ade3ca160e4U,
  0xbd3b25a8bd63225dU, 0xbc30d7553cee16e4U, 0x3dd4da7c3df82e82U, 0x3d83dcd73e3b1cbeU,
  0x3ddb7c053dacd486U, 0x3dc541edbc069ce1U, 0x3ca83b42bcce01c6U, 0x3da8e6c9be002f1cU,
  0x3d2f05c0bd398fb8U, 0x3e5dfab93d8b7f4cU, 0x3e82a4273e5bfe4fU, 0xbe317d593dfed602U,
  0xbcd57db53db94482U, 0x3c268c513d8609a3U, 0xbc04ea0c3c827998U, 0xbc33ba2bbd83ca2eU,
  0x3deded723d9d60feU, 0x3e54fdfd3e4959e2U, 0xbd8093f6bdd3da4bU, 0x3d3d161a3d379bffU,
  0x3d47f3d03d86ae12U, 0xbe4cce7abda12b7cU, 0xbcaad9b0be09d29eU, 0x3ded42b83d11f80eU,
  0xbd6af0f73e730880U, 0x3d1a7495bdb3297cU, 0x3ce657c0bc1770d8U, 0xbd685c8c3cb0fd54U,
  0xbddf0bd9be5e3791U, 0x3cd333b9bcbeaee0U, 0x3dff29b73bf63407U, 0xbd7b236fbc96498eU,
  0x3c376fb73b66bc19U, 0x3da860d83d721e10U, 0xbe21cce7bd415037U, 0x3bc5c0cabda36e7eU,
  0x3d9d59f0bb258ba3U, 0xbe1be50dbbf9d7a9U, 0x3d828f2a3d94dd91U, 0x3d1211743d6ebb10U,
  0x3ccea25c3dff9672U, 0xbcc7f8bebd21e012U, 0xbe1522c43cd31997U, 0xbc037020bd7e6309U,
  0x3d2078dabd2cbe94U, 0x3c4e120dbbf80320U, 0x3da1139fbd6a7e2eU, 0x3c438c2a3df60c02U,
  0xbe2fd60ebdee8f06U, 0xbdf2751abe053f26U, 0xbd3493cebd2b0038U, 0x3d116cc0bc67cf55U,
  0xbcf020bc3d65c3dfU, 0x3ddd7aa33e29ed68U, 0xbe2ff9523c8dde3bU, 0xbe713fd0bdf93935U,
  0xbcdfabcf3c21f430U, 0xbc55ef55b96e1cdcU, 0x3c62e10dbcc2bad3U, 0xbdc3d910be239482U,
  0xbde9d541be182d01U, 0xbdc6e275be5c671fU, 0xbddb3c15be4b3fb2U, 0xbaa340adbd6d4642U,
  0x3c5d4bf53c69fdd6U, 0x3c949aa23b0931bfU, 0x3d3a00a5bd7d0cd0U, 0xbd494ec2bcc39670U,
  0xbdba39f2bd724488U, 0x3c6cf2d9bd6d7067U, 0x3c66432dbcaddf7dU, 0xbdaf1bffbd368176U,
  0x3cf89cce3c11ad9dU, 0xbcdea64fbbc5c5caU, 0xbc2df6e9bcef61f5U, 0xbd8bfd36bd083f52U,
  0xbab95098bd053556U, 0xbcc4be0b3c291963U, 0xbce240613bbbaf7dU, 0x3c45d7463c5164c7U,
  0xbd3ce3043d48db7fU, 0x3c8d54c13cd5597aU, 0xbb6a189f3d73c68fU, 0x3c119b42bcd80d5dU,
  0xba8f43d4bceec99aU, 0x37ec6fc0bd0ebf18U, 0x3d2e77d03ccd289dU, 0x3dd98ace3d99b298U,
  0x3d663e1d3dae0a5eU, 0xbce7899dbca00fe4U, 0x399980b83d4e8b86U, 0xbd2dc10e3d8e1d47U,
  0xbd14b73ebcbc5ce0U, 0xbb83a163bc30007bU, 0x3ddb3f2f3d652cdaU, 0x3df276e23e137b1cU,
  0xba954a00bdc16253U, 0x3d6b9035bc4a8a77U, 0x3da327f63c9cf6d8U, 0xbdaf700cbd4523e0U,
  0x3c438e0cbe0876c0U, 0x3dbc22a93d6040f7U, 0xbd58f3bb3e253d05U, 0x3d58ce94bd7930ecU,
  0x3d945bb1babcfbfaU, 0xbd80b0b83ce67e4fU, 0xbe26af83bdf22a77U, 0xbbd8f670bd5f5db3U,
  0x3e11d6893d81bf19U, 0xbd403cafbcadb5daU, 0x3bd64fe1bbf1f4a3U, 0x3d88111b3d7fab7eU,
  0xbe151266bd304ed6U, 0x3aecbed2bd9ce57fU, 0x3ce7b8d73d42cd6fU, 0xbd6073a93d3719f6U,
  0x3c5a06dfbc52a38fU, 0x3d6a9ba03d42d2dbU, 0xbc9eeb863d37c5ccU, 0xbc8a1fecbd7ee0f4U,
  0xbcbd09be3ca67294U, 0x3ca153b73a9d98feU, 0x3c049d81bd3e5d88U, 0x3ca25c243d5cab10U,
  0x3d85cfdbbc3ab78eU, 0x3d10e4e43d48a9e6U, 0x3c118afb3cfc31a3U, 0xbc767da3bd707667U,
  0xbc830b50bcd31e76U, 0xbbdad66cbc440a44U, 0x3be41de73ccf27cfU, 0x3d7b939a3d1dccd4U,
  0xbc88c5f93cdcd762U, 0xbd961113bdac6ca5U, 0xbccedb5ebc7282d8U, 0xbc7f66c3bcec8c05U,
  0x3acd0890bc45b538U, 0x3da10cd83b9bbc39U, 0xb9831ff33d18a3c8U, 0xbdb327ccbd569fcbU,
  0xbdc68782be5ec81fU, 0x3c0d553ebcb381e4U, 0x394b5fe6bca18b52U, 0xbcd05e48bcd3a009U,
  0xbd500612bdb5a5e1U, 0xbde9b1b9be0369e1U, 0xbdcbf259bdcf15acU, 0xbd05d24bbc7f2859U,
  0x3c3b3912bbc50f46U, 0xbbdac7ccbc414fbaU, 0xbdc6995b3d8d23f5U, 0xbd08e5cabccf5f84U,
  0xbb4f778cbe0051b8U, 0xbd94731abd293088U, 0x3c7435883cf5ee5eU, 0xbc382813baf4a189U,
  0xbd2abccabd2c9f65U, 0xbcaf2232bcdc5ffdU, 0xbcb91777bdcde556U, 0xbd138279bdcd3e4fU,
  0xbd8fb4243c65ecbaU, 0x3ba67c4f3c581714U, 0xbcb5b35cbdb85dccU, 0xbcd1da70ba4b8ffeU,
  0xbad3d51bbdba9384U, 0xbd5b13afbd28e69eU, 0x3c521e4cbd5e56bcU, 0xbcab96d0bd201117U,
  0xbc3316e93c0fa60bU, 0xbd61dfbf3cc6aec4U, 0xbd54eeb23d3536efU, 0x3d7c45553d8299a6U,
  0xbc67152d3d6817c0U, 0xbe5faf45bcce6f5fU, 0x3ddca24fbde2d033U, 0x3dc27c1bbc3a6fadU,
  0x3cbfcce1bd4b843aU, 0xbc7a8c9dbcd80b86U, 0xbdebd7b6be25c28eU, 0x3d356e87bd1072adU,
  0xbddd82513cea262fU, 0xbcd8cb183cf3ae9dU, 0x3cb7baacbbf8d7cdU, 0xbc09111e3debbe77U,
  0xbdd21c2cbdc230eeU, 0x3bc1eb733bc3ce60U, 0x3c4bfa2a3c804e5aU, 0xbc6e5669bd5992e9U,
  0x3d0a37913c2bfe33U, 0x3d2be2f23dcb2950U, 0xbd1b886bbdbdec21U, 0xbc1e546f3d57a5cfU,
  0xbce31652be0a529bU, 0xbd7a90d03da83b40U, 0x3d820ac9bdd81b85U, 0x3dc037e53dc0404aU,
  0x3dbd13c33d9ff86dU, 0x3e0b27f43cd9e0a2U, 0x3e0009c33d4ed01fU, 0x3dd9d5403db4ca81U,
  0xbcb3b2d6bde0c67fU, 0x3d49b3323dd8c4f5U, 0x3d32e78abc29ad24U, 0x3d7cf095bd6b8e0aU,
  0x3d9bc36d3d4b59e7U, 0xbd3eada93db61135U, 0xbd19001dbc162611U, 0xbd1c48863d860323U,
  0xbd4aec2b3ce018f9U, 0x3d2fefcabd97d0dcU, 0x3dd8fecf3de5e63fU, 0x3d6182243e0b84eeU,
  0x3dcb57ab3d62e9dfU, 0x3cbb8601bd24488aU, 0xbc953145bcf26ca7U, 0xbd0b7af9bd6fa781U,
  0x3cdaa0103d8f3540U, 0xbdb52a9cbb563104U, 0x3dc0f135bcda9cebU, 0x3c2b6853bcaa23cbU,
  0x3ab879e33af924f9U, 0xbe01b70e3d0820f3U, 0xbd5848c03ddd51e2U, 0xbe47e19dbd840ba1U,
  0xbaef4932bdda3886U, 0xbd0b4251bdc3710bU, 0xbc238163bc456d66U, 0xbd2d7092b98bc95cU,
  0xbe7de1adbd1d9fe2U, 0xbe90c945bd85c708U, 0xbe1b4bb4be922c9dU, 0x3ba462a6bdc87d4eU,
  0xbc56f482bc105a46U, 0xbc45e27f3c182182U, 0x3d6d6a77be1666c2U, 0x3d87b74dbe6a74b4U,
  0xbe244332bd67c560U, 0xbe7b86c3be1e1d04U, 0xbb442dacbe72214aU, 0x3c54631fbdf73920U,
  0xbe31a299bdcc48a6U, 0xbd2f0da5bad3f411U, 0xbd95472f3bc3ef96U, 0xbc9c0916bdae00dbU,
  0xbdb0d22cbd2cfeefU, 0xbe85d190bcbe0276U, 0xbe4e2b693ab4bc3aU, 0xbd23401bbdd58591U,
  0x3d796319ba762118U, 0xbda72f0f3ce5d1e7U, 0x3cb170943cc26e9cU, 0x3baa96743dfb4f6cU,
  0xbc55b117bdf56a4fU, 0xbd46894cbde13869U, 0x3d478e84bd46d75bU, 0x3dca6d403d43814dU,
  0x3e50b27f3dfd195fU, 0x3e1030e93df26013U, 0xbd533d7c3d8d6660U, 0xbd765cf33dd4c647U,
  0xbd722b743d248667U, 0x3be48b4dbcef8c9bU, 0x3d072c143cc8bcc6U, 0x3e4851e83dd7622aU,
  0x3e2a206d3e4bb184U, 0xbd687ecabdcc44c3U, 0x3dc75d2dbddc00e3U, 0x3c4b35a93ce32557U,
  0xbdffc567bc9b04dcU, 0x3cea5f5ebe4113b9U, 0x3db4ce4a3d6d3ec5U, 0x3cf1c08e3e4acabbU,
  0x3ca31f20bdd27ea0U, 0x3d8dae633ca0b38aU, 0xbc428e603bfb0653U, 0xbec63d6dbe3d9c59U,
  0xbc818f1fbd83bc6fU, 0x3e3f31aa3d052d1fU, 0xbdf8b8ea3dfd64b4U, 0x3d38e6f73cf88a5aU,
  0x3ddf2c183dafd95aU, 0xbe6f9a4fbd386326U, 0xbd411eedbe221f9cU, 0x3cf341163d155117U,
  0xbcf0fe523d8bff78U, 0xbcc0b37dbddce959U, 0x3d55a5203d633320U, 0xbc81b52a3d6fd15bU,
  0xbdd8c3abbe0509edU, 0xbd697f293cadd1b6U, 0x3da9ab693c5e8bf6U, 0x3d8aed253d1414aaU,
  0x3d61eb0a3d20addaU, 0x3dfd398a3d405038U, 0x3cfd24d63d553c56U, 0xbd78fdb13c960c0eU,
  0xbc38919bbdec407eU, 0x3cc70fc63ca99ad8U, 0xbd2efca33cabe4b0U, 0x3c0fc5cc3db9ea70U,
  0x3dd124ea3d7b257bU, 0xbc48400a3c80303eU, 0xbd56316dbd93c1abU, 0xbd10ff90bda5fe53U,
  0x3dab748abe0e102aU, 0x3bfcec73bcf8b2d2U, 0x3dbdcbe3bbbfbb85U, 0xbc6d0d253deb47caU,
  0xbdabafd2bd11efc3U, 0xbe03c452beb188ddU, 0xbe73bcb6be5eea84U, 0xbc5e8c3e3b8c36aaU,
  0xbe385f51be628269U, 0xbeb3339bbea532beU, 0xbebe145abecb134aU, 0xbed52598bf0d5048U,
  0xbde99475bea28a79U, 0xba779022bc2a4e3dU, 0x3d8bbc6dbc876383U, 0x3dfb6ba33c4fae91U,
  0xbe425836bda999d8U, 0xbdf7fedfbc4fd0a3U, 0x3ca11394bdec05ecU, 0x3d20ea583c8e3f6cU,
  0xbdcaffa7bcb28297U, 0xbe04e200bdc6d3cbU, 0xbd16a60c3c131f31U, 0x3bf5e45fbd8b7269U,
  0xbd0da533bd81e47dU, 0xbe6e23423d92a559U, 0x3b36abad3c88c08dU, 0xbd26102fbe11f803U,
  0xbc48a001bda7e5e2U, 0xbce2f16cbd55da13U, 0x3d0ad96a3cf38fe9U, 0x3dbc6ef93b748b59U,
  0xbb9f266cbb129970U, 0xbd9107783ca949acU, 0x3d2056973c230109U, 0x3c61923c3b8855c0U,
  0x3d9f36be3c481097U, 0x3e81c8343e21fb2aU, 0xbe0e6fdb3e07b2b3U, 0x3df6dd97be20e6b3U,
  0xbdb85cb03cf81b44U, 0x3d61cbc6bae1b14fU, 0x3a42a073bd285ad6U, 0x3d4cb1cb3debad31U,
  0xbc0464a83df2da5aU, 0xbd36eba33e1ccebeU, 0xbaf2ed0c3daa7ddaU, 0x3c0eb5af3d175e9dU,
  0x3b37c5c53dad80a0U, 0x3e35b08ebd7191f6U, 0x3d1198103d6b50d8U, 0x3d9c96743e27b6f9U,
  0xbc930f893cd8a1e5U, 0x3c7da9a8bb84cc0cU, 0x3db032b5bc9bd740U, 0xbe4ad267be1a4ab1U,
  0xbc88022d3dc28ccdU, 0x3d500efcbcf55cd3U, 0xbd24eef03d82ff19U, 0x3d1d6fbfbe25c038U,
  0x3d8220ce3d6997f2U, 0x3c2df0c63d630173U, 0x3d96954fbc26ce2bU, 0x3d7ba99cbd6a7f78U,
  0x3d43f8423dbeab0dU, 0xbdce993cbddbae41U, 0x3d0f4ff9bd0ea058U, 0x3dc87be93c6b5fe6U,
  0xbcbffcf9bdbab040U, 0xbcec9e8abd5de1b5U, 0xbc4cde503d721554U, 0xbe0890f2bbfd8a44U,
  0xbcb0d0673bf736b0U, 0x391af3dc3aca10bfU, 0x3e374934bc6ef68bU, 0x3cb3fb6f3d4779b3U,
  0xbd178fbdb9840b68U, 0x3c766f8cbce923a1U, 0x3d1bcd9dbdebdceeU, 0x3c90c0283c84d50fU,
  0x3d7ad6adbdbeb371U, 0x3d1281e13e1085ceU, 0xbdeba74ebcb08563U, 0x3bf9c4c4bd9f4083U,
  0xbd6d92c5bd9c3d5cU, 0xbceb34e93b0288c2U, 0xbc3c7008bbd1ebadU, 0x3ddeeed13dbbba6eU,
  0xbe1b45e53a7806f2U, 0xbdd3401cbda4eb3aU, 0xbd9adc7abd89049bU, 0xbc0023653c5a5592U,
  0xbd9d32703d9b7919U, 0xbeb6250bbde3b53bU, 0xbed23b1abd0e1b4fU, 0xbe915a50bf08a571U,
  0xbd872dcbbe8f7091U, 0xbcb99f82bce5df38U, 0xbc0db2543ba849d6U, 0x3dbceaf13cf422e9U,
  0xbde14d7e3ce6344dU, 0xbe2e10f3bdcea298U, 0xbe191571be7a9c7dU, 0xbc3525a6bd5f4c1cU,
  0x3bf07fb43d1bd158U, 0xbca80d64bd14b2daU, 0x3b9d1ea03c417543U, 0xbe2739cbbcaf395bU,
  0xbd94f27fbc71301eU, 0xbda48bc8bb3e8156U, 0xbe416279bd56791bU, 0xbe33900bbabd68c6U,
  0xbe00b31ebe65fea1U, 0xbd2a8708bd57db6cU, 0x3cd3e50f3d0f5745U, 0xbcb406e53c479f5dU,
  0xbc33bdc7bd8320c1U, 0xbcc3c123be298f0bU, 0xbd8328d5bdb125ffU, 0x3bf17866bdea1050U,
  0xbb90a511bdbbe8f4U, 0x3de808a53ce94355U, 0x3d5a02f13deeee88U, 0x3d6973bfbc9e336eU,
  0x3d129cab3d5ab3a8U, 0x3d9efb37bd9506a7U, 0x3d744806bd9d89b6U, 0xbc9c77793c70ab9eU,
  0x3e7f87a73e716dacU, 0x3dac4c833eb580aaU, 0x3dfa4c3a3d521440U, 0x3d1c872abaa7148bU,
  0x3da1a62f3c810e14U, 0x3d9dc67a3df4b718U, 0x3da1945d3c93dcc4U, 0x3e71cfcf3e2fe808U,
  0x3dd063b53e157bf4U, 0x3d274e7f3cc10eebU, 0x3e1d30c93dc5c45fU, 0x3dbd1ac13dc7b6efU,
  0x3c09fc893cf282bcU, 0x3d5f3a993c82faffU, 0x3de542493e32b4f2U, 0xbe2679bc3e52db20U,
  0x3e2c74123e0c126aU, 0x3e3bab473e1967d0U, 0xbd52db3bbd2fe709U, 0xbd8e8cc43bb02efbU,
  0x3e11c8eabd4e8ae7U, 0x3e3e09af3cb18905U, 0xbc239c8dbdf98fe8U, 0x3c6ee0323df512d3U,
  0x3d6408233e6995e2U, 0xbe36cdd8bd9e1797U, 0x3ad4d2c63d409b99U, 0xbca70ff53dc56796U,
  0xbd91bd113d3f9f0eU, 0x3ccfcddf3cdc0affU, 0x3eb41242bcee94f2U, 0x3bcda3d03d6b9110U,
  0xbc95dce63c877768U, 0xbb007a74bbd88853U, 0x3e3a2acb3c83eb84U, 0x3d472f563db3708bU,
  0xbd25ffc13c838a25U, 0x3e5a021b3e16dfc1U, 0xbe8434ab3caee83aU, 0xbc8832f6be22b26eU,
  0xbd719572be444cf6U, 0x3c72aebcbdc77e3bU, 0xbd06d9babc31c32dU, 0x3dd043963e1ad309U,
  0xbd9dd4cb3e8c5556U, 0xbe0289d2be85b19dU, 0xbdc8d999be83564bU, 0xbe4caf0abab34cf8U,
  0x3db5a3003bc2d768U, 0xbd904b4ebd471171U, 0x3d2269e2be191d11U, 0xbe90c23fbe9f2fa4U,
  0xbebe8a2ebe8d071fU, 0xbe1cdee5bead9aa2U, 0xbbf17bb93c626492U, 0xbd3ddbfabc83b541U,
  0xbe8203253e02c22cU, 0xbd0f13143cd217c8U, 0xbde1971ebe30ea5fU, 0xbe61ac9cbe0121cdU,
  0x3b86eda13d1c441aU, 0xbd5e695ebbf01640U, 0xbd1117ffbe383b11U, 0x3d8fef33bd36e03eU,
  0xbccbed28bd9cc81cU, 0xbda03b10bd2a54ccU, 0xbda042b8bdc9d590U, 0xbc8334a2be23f9feU,
  0xbd0fd7c8bde68bf8U, 0xbd24d5fc3c824d15U, 0x3b14511fbd3f10e6U, 0xbcde6f13bdbcb5efU,
  0x3cdbb82bbd8a788aU, 0xbc2e3fff3d1343f2U, 0xbd79f6d7bcc292e0U, 0xbd40d59ebd3729d0U,
  0xbc9ef7263d3114d9U, 0x3dba3ab1bc0f8c41U, 0x3d7e09d33df558d5U, 0xbcd1a6883e179405U,
  0x3dec8f56bd0366aeU, 0x3d953ebd3bdd36d2U, 0xbc80e700bcfc1287U, 0xbc2827653bdda623U,
  0x3c71822a3d64aaf5U, 0x3ded2e1b3d9705a9U, 0xbd5301373dfce370U, 0x3c136d7e3dea4657U,
  0x3dae4e153deac533U, 0xbc7a8eb43dd6e9e4U, 0xbe39785cbc0a7ffcU, 0x3cf88402bc7350c6U,
  0x3e242e8d3db28120U, 0xbd13787dbc152f6eU, 0x3d9139353cd789e5U, 0x3ddbcc213dff140aU,
  0xbdb3d12b3bf354efU, 0xbd7a1f7bbe3b6336U, 0xb99627213b496ebcU, 0x3da125583e0d6188U,
  0x3dc25bb6bd42b0f8U, 0x3daace3d3d82f248U, 0x3cfc44bf3dff8e75U, 0xbdb99ac3be4a649aU,
  0x3d2a25d53b89e18bU, 0x3e1411c73d2388e8U, 0xbd8a5341bda703ebU, 0x3d2f0fce3c7e1a7eU,
  0x3df155f63cf3e9e4U, 0xbdcb4e363d282104U, 0x3c79737e3c28f8c7U, 0xbc95fa8c3d29775bU,
  0xbcde9db23d61c8cfU, 0xbc84f3093b8b4621U, 0x3d49df5a3dd2c990U, 0x3de68a903d5ac377U,
  0x3cd81c103d27e80aU, 0xbd0e8118bd07596dU, 0x3c9ac2553d1bac3eU, 0x3d0aae4abe39ace1U,
  0x3d1402823b9f223fU, 0x3ca08c64bc0060c8U, 0x3cfa3fb53cd3e001U, 0xbcd36f90bbedb59aU,
  0x3d22effbbdc9c95aU, 0xbe70e4073d9b1b2eU, 0xbd97250f3c66993fU, 0xbdb228203df50b30U,
  0xbc43d47e3d1bcc98U, 0xbd494edb3c61671cU, 0xbe21b73ebdb18305U, 0xbe32408cbd3db620U,
  0x3bb241d5bd5a3d85U, 0xbc892aa93dbec86aU, 0xbe2d7dacbdf7bd11U, 0xbe245408be641f2aU,
  0xbef278e4bee33feeU, 0xbe7ae73ebeddb481U, 0x3bb70038bd99b991U, 0x3b7e969c3acad312U,
  0xbce45c383d42eb9cU, 0x3da78d55bd895b86U, 0xbda1861cbdb14c46U, 0xbe2069b7bd873ec3U,
  0x3daa933ebdaec9dbU, 0xb9b32b78bc9e26fbU, 0xbe0c33b4be3452b9U, 0x3d9300d53d0c2d8bU,
  0x3c5435423c8be385U, 0xbd9204133c2a4e52U, 0xbd1ffb0abd9cb64cU, 0xbd16fcf4bd7764f5U,
  0xbdb851723bfb2badU, 0xbdae97613e12905aU, 0xb9091048bd1407c7U, 0xbdced1e1bc928418U,
  0xbe14bc12be259ba7U, 0xbbce478abe618b59U, 0x3b8d7325bd84c4c7U, 0x3d40ac083c87f52bU,
  0xbc6f1901bd270193U, 0xbd9d1197be04e18fU, 0xbe913e603cd503b0U, 0xbf060723bec9523cU,
  0xbdb40377bef03662U, 0x3c588a863de3de27U, 0xbbb71c723db12d40U, 0xbdcbeb74bcb3772eU,
  0xbf048d83be6541ccU, 0xbec6b52abf28470eU, 0xbe7d7278bd9f933cU, 0x3d54e21fbddbbaa1U,
  0x3d89ce763cc763deU, 0x3e5388623e580bddU, 0xbe9a5e51bdd1d60dU, 0xbeaca2ecbe9cd5b7U,
  0xbd85a346be63a33eU, 0xbd6577e83d7070daU, 0x3e304b38bdccc31eU, 0x3dd4b4ed3dadc154U,
  0xbe349fd33cabd723U, 0xbcca007fbe144315U, 0xbc0457eabd733fa8U, 0xbd7aeeff3d43bc35U,
  0xbdc49694bdcf859eU, 0xbbe1b27f3b8491d0U, 0xbe3645ddbdca04b0U, 0xbbb0a56ebe8c08e1U,
  0x3d44bcc13e3e300cU, 0x3d8aa3f43e2ce7bcU, 0xbd215753be5a8240U, 0xbbca8896bda7074fU,
  0xbe273112bc400fe0U, 0xbca6fd35bdcd1b9dU, 0x3e2e59973e132741U, 0x3e8ae0593dfc6944U,
  0xbdb7d7663d659928U, 0x3d58ddbfbd31dc07U, 0xbdd122063b8b7354U, 0xbe422ee4be979cadU,
  0xbbab992cbd6ce845U, 0x3e6697063e6de62bU, 0xbd86cbc13deb3b99U, 0xbd15c3f2bd988dc8U,
  0xbe13bbf3ba42a414U, 0xbed052cbbe84d0e8U, 0xbe5f71dfbe915e7aU, 0x3d077037bc7186d9U,
  0x3e17577a3db9c1c5U, 0x3d6339ef3e444687U, 0xbc4c82e6bbe43906U, 0xbd206da53db9f853U,
  0xbeab640bbeaaaa20U, 0xbea0b09fbefa8646U, 0xbd94c0f5be1685a8U, 0xbd2ec6fdbd0a38ebU,
  0x3c21b2863981a325U, 0x3c46ab49bb97f732U, 0xbd67952ebd06b426U, 0xbd2c8adfbd8b8579U,
  0xbcca0abbbe10cd8dU, 0xbd5463a43c10d0bdU, 0xbad275423cd97dcfU, 0xbd2b5e023ade2093U,
  0xbc1e9439bc01ccc6U, 0xbe31379d3d38b5bfU, 0xbd95d466bdfb9e65U, 0xbe395c20be4424ccU,
  0xbe0b4573bdc1800bU, 0xbd20efabbd16470aU, 0xbda568f7bcbe60e1U, 0xbd6af431be1a07dbU,
  0x3d32133bbd2fb57eU, 0xbd007012be0f5b29U, 0xbe071855bd0d42a8U, 0xbdb55443bda39ecbU,
  0xbc3137b8be5aec19U, 0xbdcb22e8bde8fd80U, 0xbdc38618bcbc8408U, 0xbc508f8fbd1e62e3U,
  0xbd59b129bd849e27U, 0xbdd0fcdabde84135U, 0xbe137122bd03fb95U, 0xbdc470d6bd3a93a7U,
  0xbda21ac7bd8a6351U, 0x3b9bce54bc88d7c5U, 0x3d526e153c80aa38U, 0x3d3be1013bca3d9dU,
  0x3cd28c903dbaed1dU, 0x3d2f15b73cec3723U, 0xbd19c876b9df792aU, 0xbd2f9da1bd2ff535U,
  0x3d12ca013d8e6b9cU, 0x3d7053223d8c9422U, 0x3e0cc6e83dd38afeU, 0x3cba69313d81ea00U,
  0x3d3398e33d2d269cU, 0x3d8cf365bbf26ad7U, 0x3d7866f13d17e56fU, 0xbe212a233cdc80e9U,
  0x3d9e4d78bdaf4de0U, 0x3dc5f3ba3dc2ae25U, 0xbdf759e53d93d280U, 0x3db21bccbd1f7ab1U,
  0x3d1630cb3dae20f5U, 0xbdc566883d9c7965U, 0xbd80d178bebdaeb8U, 0x3d7e785e3ba81774U,
  0x3e4181763dfb1478U, 0xbc4fedb1be99c996U, 0x3d65f0a33d82f228U, 0x3d359e953d8e5de2U,
  0xbe76fdd7be298f77U, 0x3bf7a2a0bd59eed1U, 0x3db30aed3dbe06bcU, 0xbe41f65a3dbd0defU,
  0xbd402ca0bc69f51aU, 0x3da463483ccfa3ebU, 0xbe42f4da3b906af5U, 0x3caba9d9bd409733U,
  0x3ab505eb3cdc2cafU, 0x3d7371943cd59218U, 0xbdb4095cbdeccb9fU, 0x3cbf64ff3c8c97f1U,
  0x3d409b473d81c654U, 0xbcb9b3dabd8e8ff7U, 0xbd0b8860bd27e716U, 0x3d58db0a3d0625dcU,
  0x3c86c7433dc6bb0bU, 0x3c57259c3d9c7b3eU, 0x3da3b952bc904378U, 0xbd15a9433d937ec8U,
  0x3c5a9bf2bd862efbU, 0xbd1bc0a0bcb77b5fU, 0xbe1e788b3d110a84U, 0xbcc6deb5bbc063dfU,
  0xbcf1c2063d2ed69aU, 0x3d36a1ba3dbd65bcU, 0x3ca27fd93c8e5b82U, 0xbd2e9eebbcc04643U,
  0xbe1b6310bb8cf062U, 0xbd1d93abbe88ddb3U, 0xbce22a303c5201e8U, 0xbe1f7c1fbd94633bU,
  0xbdc9c13dbe23ac28U, 0xbe9f639abe082f35U, 0xbec1a32ebebadda2U, 0xbcd2e37fbe1e9e72U,
  0x3dcd21f73da88e29U, 0x3d9a58403dd3e27fU, 0xbc81d51b3d2dc881U, 0xbd21cd113e1e7fb8U,
  0x3e3477ae3adaec30U, 0x3dceb9d43da5de1aU, 0x3dd3ebff3db91975U, 0x3de5f8653df047c8U,
  0x3e9a52203d07fa42U, 0xbe6ff1b2bc2f8eb7U, 0x3d9895fd3cfc4579U, 0x3d89079e3df0f46aU,
  0xbde4d9933e1e0a20U, 0x3defa81f3da9da11U, 0xbe6fff713e28e9c8U, 0xbeb7ee23be6dd12eU,
  0xbe9118e7be23587cU, 0xbda176c5be73eb2fU, 0xbcac302bbe3c775cU, 0x3da63b56bdfcf5c3U,
  0x3cb065193dbf83e6U, 0xbe7e72f1be5972d6U, 0xbe6dd307be2025dbU, 0xbeb1c938be5c301bU,
  0xbe2ada5fbe9dbb96U, 0xbe5171a7be8274afU, 0xbd256a763d71671cU, 0x3e1efc943e24791bU,
  0xbe8efd13bb8b7e51U, 0xbdfaf2a8be99434cU, 0xbe879344bd1ac141U, 0xbe53db0c3cf7e651U,
  0x3dcf32cabe48cf3fU, 0xbe4196653d21e1acU, 0xbd9534a9bdb7e3d7U, 0xbe536c24bea78393U,
  0xbe4ed286bdc428a3U, 0xbe1859bebe77d5abU, 0x3cbe84a2bd6881fdU, 0xbc0079843d67c594U,
  0x3dd9b2c13cf0da98U, 0xbe2f464cbdcaa317U, 0xbd05b41bbe4870f0U, 0x3d2485e7be1ecc48U,
  0xbd6c1b923dd16c1cU, 0x3e12f6afbc147b46U, 0xbd64a1d43df1ff77U, 0xbe711596bdeaefb8U,
  0xbe16c694bee30944U, 0xbed3f37abdfa31cdU, 0x3d3fd6c0bec15671U, 0x3cfa52453d939d89U,
  0xbdb781293d98c9c6U, 0x3b8e7fdcbe323192U, 0xbe9b0149bd920c58U, 0xbe158e2a3da227a0U,
  0xbcae83eabdaf42f8U, 0xbd993a84ba56a85cU, 0x3d5301803d4cc04cU, 0xbdecaf44bdeb2cedU,
  0xbe5c96f9be63f112U, 0x3cf8f140be413518U, 0x3e365117be669e9fU, 0xbd8f46b63dc5a364U,
  0x3ddd55debe32b517U, 0xbe5085f43dbeade2U, 0x3e358efdbd6494adU, 0xbd9ee5323cea2a7dU,
  0x3dca75fabe1ee1f2U, 0x3e9016063e0f4730U, 0xbd8d1bbfbd16253bU, 0x3e221c3e3e00adcaU,
  0x3dd93e603e50bdbfU, 0xbdecbc203b34da1eU, 0x3c913bbfbd738647U, 0x3e1bb8773d88e4ffU,
  0x3dd069953d1f46b3U, 0x3e173bc6bd062171U, 0xbd19ae433d9c5926U, 0xbcc99948bdee0bc3U,
  0x392588573da05d7bU, 0xbde6a16e3d99df70U, 0x3e05eca93d07d974U, 0x3d037042bd9feeeeU,
  0x3d27659f3da76a29U, 0x3d2faf7d3cef145dU, 0xbd1057643ac54a4fU, 0x3dc8172d3c32649dU,
  0xbc8d17d13ab0c836U, 0xbc688894bc7860a9U, 0x3cf9bc663b0d1ca3U, 0x3d921c483d50ad5aU,
  0x3da200f33dbd0bf5U, 0xbdef7bc8bdefb2d1U, 0xbcccf2933d1915b6U, 0x3c21e6903d10328aU,
  0xbd83c9c0bdb9bb8fU, 0x3d3afb23bda2ba2aU, 0x3d93c9ff3bac712cU, 0xbd1297dfbe0c1ebaU,
  0xbc892171bcd6b770U, 0xbd7a207abd2b5255U, 0x3c22beaa3b9474f7U, 0xbe0167c53d73bf0bU,
  0xbd1c3188bc8897c5U, 0xbdf11138bb8725c9U, 0xbbd4158b3cf57bc9U, 0xbcea784bbd4d9afeU,
  0xbbe01d09bd6fb16dU, 0xbd9eb08cbc9c46a9U, 0x3cdf585cbe2d2e1dU, 0xbe1cea0bbe097abfU,
  0xbd83e82fbdd9edfeU, 0x3d277f09bdb39707U, 0xbd7b77aa3dc218fdU, 0x3b99fe86bdf8023aU,
  0xbdc229dfbd401655U, 0x3b5ef98c3c37d9d6U, 0xbd9c8833bdb98926U, 0xbc86718abdec85aaU,
  0x3da7958b3df1d027U, 0xbd7fe68b3c27ab96U, 0xbd5b468d3c84826bU, 0x3d89bcdc3d75bf42U,
  0x3c8628ab3d8351cfU, 0xbe596c463ccaf959U, 0x3d662093bd81f937U, 0x3c04af823dadbfa1U,
  0xbdd7f205bde54732U, 0xbd709bebbd7ec4b3U, 0xbcc75b133cd0e1e1U, 0xbdd3c568bdb67266U,
  0xbd5c347bbe07764fU, 0xbbc72dbe3de1da69U, 0xbeacb21bbe3c548fU, 0xbe53c6dfbe4ce28aU,
  0x3d21e4673c722352U, 0xbe3e0acebdde9a36U, 0xbe4efccbbe5b9e82U, 0x3dc69db7bdd009f9U,
  0xbd991fa0bd2279e7U, 0x3d0f1059bdbb6e50U, 0xbc84b3acbe3d6e24U, 0xbdaee88e3d1ddcd0U,
  0xbc6f8c53bc0c9313U, 0x3b46d403bcf619d4U, 0xbbc538e83cb394beU, 0x3dc4d7c93da6978bU,
  0x3a07510ebd0cd73fU, 0x3d23a9f83d986763U, 0x3d2e482fbd17eb9eU, 0xbb91374b3cf28879U,
  0xbd3dc7b1bd512617U, 0x3d812a463c7516e2U, 0xbc1e36673dc0f876U, 0x3d987da03c28ffdcU,
  0x3d54d17c3c98d2cfU, 0xbdd02c043d964c26U, 0xbc478f1fbc40f894U, 0x3d1ec0833cda83b8U,
  0x3d9ad3fcbdb5bec6U, 0x3b88c3a13b99b6a8U, 0x3cbf4dbe3d055036U, 0xbdb8c29a3b735675U,
  0xbe6e6dbfbdf8a4f5U, 0xbdc37075be064b8bU, 0xbe716326beaaf57cU, 0xbc7d8c7fbd2611faU,
  0x3d371f693bae7fbcU, 0x3e02b37b3e1d62abU, 0x3e0d85153e07eda4U, 0x3e00322b3dfb2df3U,
  0x3e0545bf3e7eee74U, 0x3e12a2563dee4fcdU, 0x3e2510553e30508bU, 0x3e08f5883e051e68U,
  0x3dfd4f9e3e26ea01U, 0x3e93baf23e1e6cd6U, 0x3e9b5dea3e4545eaU, 0x3e81504f3e6343baU,
  0x3e1038023e0a57d8U, 0x3d966c123d6a5658U, 0x3df6eff43e12959aU, 0x3e380eed3df684a1U,
  0x3e2f504f3df630fdU, 0x3e7c0c273e20e325U, 0x3d74d85a3e0f5a3fU, 0x3e058c27bb326151U,
  0x3e167a593cced18cU, 0x3e1465fd3df01c87U, 0xbca8f7543d965cdcU, 0xbc95ef0d3e1532bfU,
  0xbd9215823e13d2ddU, 0xbd94ff1d3d830b3eU, 0x3cabfb2a3e126bfbU, 0x3e0aedf23e11b7e2U,
  0x3e311c2b3e142b49U, 0xbe143a00bde711ecU, 0xbd922287be933c69U, 0x3dd8f46fbc1e7f18U,
  0x3e6c0054b947239eU, 0x3e13b5953dfe0b60U, 0x3e39d0ef3e120bebU, 0xbe0bd79f3d9a4e9cU,
  0xbdcd0c00beae446eU, 0x3d88ee283d888736U, 0x3d24836d3df4a839U, 0x3da971243e0b2bc0U,
  0x3e39c0383e07a3e6U, 0x3d3e60ba3e1b982fU, 0x3c1af9713e4535fbU, 0x3e36e0613dc9bf32U,
  0x3d3e20203dad1010U, 0x3dc722febd49f1a0U, 0x3dfc36973ddb8ab9U, 0x3e24646e3e0c3dcbU,
  0x3ea977ee3de9cfc9U, 0x3da85f623df08ba9U, 0x3d8f71993dc34569U, 0x3bfb55ffbdaa2cd3U,
  0x3dd3a1933db49816U, 0x3e18025a3e148013U, 0x3d62c20c3e0e272aU, 0x3dc6f010bcb04f6eU,
  0x3d00c01a3dbee149U, 0x3b8e380cbd36f256U, 0x3d2852073defe64eU, 0x3e1f77fc3dda4c69U,
  0x3d841a343e06be2eU, 0xbe3d2c4cbe66deb2U, 0xbdcc0fd33c4f8717U, 0x3b61845abd8e5fe6U,
  0x3e37c0183e070b66U, 0x3e0df7d23c9733c1U, 0x3e104a623e101440U, 0x3e110dbd3e3af7d0U,
  0x3dee5e5b3e87985aU, 0xbcd57fd9be0d22a2U, 0x3de5a179bc22de5cU, 0x3de332f43e10ac65U,
  0x3e2479893e12e033U, 0x3e1325793e1255e5U, 0x3e9d24143e82497fU, 0x3d7a37713dd6c670U,
  0xbd8ca5513e2c205bU, 0x3dfc62433d4c1691U, 0x3e0bc65e3e2b61a5U, 0x3e19de963e158db9U,
  0x3dde76c53e173379U, 0x3dce0a963e603e1fU, 0x3e0425fb3deace08U, 0x3df259c7bddb1be3U,
  0x3e0acbb73e1401f1U, 0x3e2fb34b3e19e553U, 0x3e295cf13e2e3b8dU, 0x3e2e6baa3e11b5e7U,
  0x3e55eedb3e207e55U, 0x3e1b0b413e0aa393U, 0x3e1e1ee13e248772U, 0x3e2e13b43e18782cU,
  0x3e1283263e22ab6aU, 0x3e0c5cc53e1f4b61U, 0x3e3746443e37a643U, 0x3d5daeb1bcea72b9U,
  0x3df7b03c3e1dfa75U, 0x3e21e0273e393ed9U, 0x3e254a713e1e5312U, 0x3e3e55173e3ef0fbU,
  0x3d4e413f3e0b8e92U, 0xbbec36bb3d13d367U, 0x3baa1086bcff8fc1U, 0x3d3011e43e2cf9c2U,
  0x3e15d61f3df93009U, 0x3e20def53e0c0466U, 0x3d70c1ca3e1d15abU, 0x3ce58f043da71dccU,
  0x3d2ce5eebe24667cU, 0xbcab94f63e143ba0U, 0x3d9fe3b23d05e8bcU, 0x3e12dd2e3e2ea0caU,
  0x3e46643b3e2b01f9U, 0x3e5d5a353e354b9bU, 0xbdb4872bbd473f8dU, 0x3e4895393e5bd29bU,
  0x3e0986363dd1c45aU, 0x3e335b9e3e0084e3U, 0x3e0626f83e10ea35U, 0x3e2d893c3dddfe75U,
  0xbdb3495e3da4c3caU, 0x3e86fb0dbe1681caU, 0x3e23bc143e4c0e0bU, 0x3e19eda83e009513U,
  0x3e2101183e36d422U, 0x3e037d693e14787aU, 0xbc8b93a63e02ef48U, 0x3e16e153bdb17c75U,
  0x3e67df363d5f06d6U, 0x3e2983da3e7522abU, 0x3e2dcdc73e2901d9U, 0x3e1fe84d3e47decaU,
  0x3df7a6553e31d048U, 0x3d674cddbdbf2813U, 0x3ddf08753e931193U, 0x3e1edd293dfdd416U,
  0x3e3e8dbd3e39b04bU, 0x3e30ce4b3e16d720U, 0x3e21bd7e3e083bb3U, 0x3d9e95523e50d10bU,
  0x3ebcc0073e46f9f1U, 0x3e5de4f4bd038710U, 0x3e20d8e53e495516U, 0x3e4005823e1c62fdU,
  0x3dabb09c3e155141U, 0xbd80e5853d79721eU, 0x3df5a74cbe30a631U, 0x3e08ba543e4c42bbU,
  0x3e626f503e590477U, 0x3e0e351c3e3cbaa2U, 0x3e2fb3013e23aeb4U, 0xbce89b793d981fccU,
  0x3bd430a23df00a64U, 0x3e77e5183d2b4f88U, 0x3e8a2b003e2c581bU, 0x3e1ea5113eac5eaeU,
  0x3e2b5a263e305ae4U, 0x3e5f6d7c3e18a7f6U, 0x3d97a82a3dfb0c60U, 0x3e1717853d7c2b7eU,
  0x3e39fc383e42833eU, 0x3e23e8193dddc9c1U, 0x3e3145d63e438d20U, 0x3e12ae4d3e208397U,
  0x3dc6cf413df2895aU, 0x3e280d163e330727U, 0x3e60c58e3e3742feU, 0x3e244ec13d967938U,
  0x3e1d82aa3e1ef256U, 0x3e21c1a73e2c0f6dU, 0x3d6bfd913d3490beU, 0x3ca7431d3d00388cU,
  0xbd9a257abde3c467U, 0xbdad70a4be3e0fadU, 0xbca57490be587b03U, 0xbd7c414bbd5f8626U,
  0x3e0f024fbdc9f222U, 0x3e2c0d0b3da4933fU, 0xbd1120abbdb37072U, 0xbd87ccd9bd9eb4d7U,
  0xbdaae4133dad7dd9U, 0x3e0a6420bccc9851U, 0xbe6f1876bd280209U, 0x3cabfb4cbbf9109fU,
  0xbe98903dbe129c25U, 0x3cc2d0f9bd5124e2U, 0xbd943522bcdb27c0U, 0x3cc458f6bc910ff3U,
  0x3a15add03c70c190U, 0xbd7d22cfbe816928U, 0xbe41e832be4f57ebU, 0xbe63f1cdbe8618e4U,
  0xbe816fabbe814d47U, 0xbe39ce16bdc3c49aU, 0xbe0053cebcedfc4bU, 0xbeaaf0cbbd31d07eU,
  0xbdf9321b3dfbd86aU, 0xbdf4951cbe56c2f8U, 0xbe48b9a3be93d7c6U, 0x3c945523be22f047U,
  0xbce13fc83ce94596U, 0xbd4e52e7be23a989U, 0x3c24cd57be823ca7U, 0x3cfea1193dcfff57U,
  0xbe98e565bbbb3a09U, 0xbdf1ac1fbec7bfb2U, 0x3d873e323d909c31U, 0xbcaabac4bc3b63d0U,
  0xbe9c4ed0be152498U, 0x3d4a20fdbbe82b84U, 0xbe096481be109254U, 0xbef7ce00bdb35aadU,
  0x3e11a57dbbda882fU, 0xbe0ce6dd3b1ed478U, 0xbdfacbeabe3b232fU, 0x3d880f74bdd153edU,
  0xbe91d9c53da0ada1U, 0xbdf4e024be37b61aU, 0x3da59bbbbe708709U, 0xbd8753e03d451e86U,
  0xbe4a3661becc730cU, 0xbe028bf8be747cdfU, 0xbea5478a3d9ad41bU, 0xbeaeec2dbeb1991cU,
  0xbe1b1e4abcac626dU, 0x3cfd4b713c66a75fU, 0xbe121a27bdc65687U, 0xbe9e2d9ebcc49931U,
  0x3d258e9ebe02c9ecU, 0xbea471693dad6267U, 0xbd93b638bd91de7fU, 0x3d7adfe4bcb15a61U,
  0xbca9df71bb5203c0U, 0x3aa1a56d3da8d53dU, 0x3bcaff87be73e65cU, 0xbe171a153d80607cU,
  0xbdebdc2f3ddb89efU, 0xbd431d3dbdf2a231U, 0x3da81151bb89a7a7U, 0x3dc3eeba3d0c21f6U,
  0xbe5fa21bbd278a9aU, 0x3d1919543d2670deU, 0x3e14edc03d60ba07U, 0x3e1728903d736b0fU,
  0xbd55dcd0bb609f1fU, 0xbc9645883d5cae3cU, 0xbe24b95d3cf24520U, 0xbd99007e3d420446U,
  0xbd4df743bc71c9c5U, 0xbdf57d29bde74950U, 0xbd9c9eb2bafc8a9aU, 0x3d07cd4bbd38134bU,
  0xbd966b47be9792e6U, 0xbd92a261be2c5917U, 0x3c32ab2abcda03a3U, 0xbcee7f053c299a4eU,
  0xbe174c91bddd28a4U, 0x3d651547bd646daeU, 0xbe168199be031ec8U, 0xbdff44a7bdd305b9U,
  0xbdb8ef98be17bcf7U, 0x3d9bd22c3cdb29c9U, 0xbd0950fe3d94d4a5U, 0xbd5a7c56be46ba4cU,
  0xbdaaf22d3dc26974U, 0x3c3e74fcbd59483eU, 0xbe210a76bdf8edbbU, 0x3c8b3873be1a3e26U,
  0xbd1e9a8e3d4f157aU, 0xb982f086be4cea98U, 0x3cf000afbd8e893bU, 0xbcdfc08cbd7501bdU,
  0x3d33a833bd830452U, 0xbe0dca94bd8f353eU, 0xbe60261abda2d11cU, 0xbe178940be1304f4U,
  0xbd23cb74bd688c26U, 0xbd67350cbcc4d6d8U, 0xbda60117bcb99b3dU, 0xbdc2fd213c85e4bfU,
  0xbdf13c4fbe6e79d2U, 0xbe8e20b1be83b35cU, 0xbcc749c9be3e4ce1U, 0x3dc294df3c6b4ff0U,
  0x3bc0dd5d3db78cc5U, 0xbc3b64b7bd9f8191U, 0xbeb698ecbdef45bbU, 0xbdece98abe309cddU,
  0xbe2a978bbe6a62a7U, 0x3ce682e4bdbc8874U, 0x3db7b3b93e028541U, 0xbcf579e13d9ffa6dU,
  0xbe683b7e3c8dd7b0U, 0x3cc2f5b1be273ed5U, 0xbe1481773d848a21U, 0xbe732aff3cf827a3U,
  0x3e0465e63d35407fU, 0xbc95e3bf3d86c810U, 0xbdf04118be0d9664U, 0xbdd8e009be14e417U,
  0xbe20be563d03a6b1U, 0xbdca0e98bddc7ab6U, 0x3c0f0c81bde72a08U, 0x3c63efc63dc1807dU,
  0xbebe5469be46b7f7U, 0xbe040eb6beb81c37U, 0xbe19d982bcf94b22U, 0xbe880f60bea4c840U,
  0xbdb59ba8bdb57c9eU, 0x3d854ba7bc793a57U, 0xbdeb246dbdc3c38bU, 0xbe4b8bc1be42c0e7U,
  0xbe1327d9be51a692U, 0xbe2e25b5bdece514U, 0xbd2a1297bda8f28aU, 0x3ce834abbd3591bbU,
  0xbcb811e0bb19c567U, 0x3df9f68e3d85e003U, 0xbdfc2d8dbdc708a7U, 0x3d48cbcd3d15ace0U,
  0xbda2437f3d8f369dU, 0x3cc93bd63c3095beU, 0xbc270e1bbd73d9efU, 0x3da9cfd53d8ecc3eU,
  0xbdb7355b3dc72389U, 0x3d4c6de9bd4ac83cU, 0x3d960b68bd96463fU, 0xbd8d0a6c3d9ee25bU,
  0x3c60f241bcb36ba5U, 0x399813963d70cf5aU, 0x3cc3ca503d7fc17bU, 0xbd7e34bdbd882fadU,
  0xbd8634d33ca8b621U, 0xbe3f9902bdbdc0dfU, 0xbea56d13bdfd7edfU, 0xbd9e62f5bddfb7fbU,
  0xbe14c068bed02ebdU, 0xbe233026be16f440U, 0xbd4571aabc1db5f2U, 0x3db244d23dbd0311U,
  0x3d89fa253dd17e22U, 0xbd1a1d963d9e1808U, 0xbd95a15d3dfd35d0U, 0xbb91a314bd0a3a19U,
  0x3db043533dca9a7aU, 0x3e157c223dc65c25U, 0x3bb880353d868adeU, 0x3cc64ae1bdc373b5U,
  0xbf0e49b3bde754d9U, 0xbe360ae3bf08f6bcU, 0xbc94017bbe065a9eU, 0xbcade3aabe56b325U,
  0x3e334ff23e08b6dfU, 0xbd96d7203e11b525U, 0xbf15e350becdb255U, 0xbf131810bef657abU,
  0xbec9e599bf1926f1U, 0xbe6d6973bea7678eU, 0x3aae26f6be522002U, 0xbdfa8fd73c1d3c56U,
  0xbe55266cbe4aa6beU, 0xbed90f7ebe60f5fcU, 0xbf138602bf36a9bdU, 0xbe8096c2beaefe7fU,
  0xbe5a2a1dbe5759c6U, 0xbe86d955bd6d36c6U, 0x3d7b1533bc0adb44U, 0xbe2b019f3de43da8U,
  0xbf32947cbee252a1U, 0xbe1d1eacbf51a4ecU, 0xbe10da84bd8e51f0U, 0x3b830476bed6fad9U,
  0xbe861d1ebe71cdbcU, 0xbd41639ebe3335f6U, 0xbea4599c3d864a87U, 0xbf00f216bf5313b0U,
  0xbd9761febdbbf3c3U, 0xbe5c4addbd609b36U, 0xbd2ba8af3dc2c343U, 0x3cfa05b9bd298a0aU,
  0xbd8fa019bdb24642U, 0xbf22d32dbecb1469U, 0xbd5be17cbe8143e3U, 0xbe0ac811bcc32f1bU,
  0x3e4ae220be057c1dU, 0xbd6529e73d912059U, 0xbe3f90f83d590b57U, 0xbf1611bcbed43cfeU,
  0xbe8c2f1ebec0cde8U, 0xbe8495d6be843e9dU, 0x3d63b0f6bd41ce99U, 0xbea15ef8bca4ff11U,
  0xbd473065be8766b0U, 0xbecb6b55be2a9820U, 0xbe4b0274beaaae66U, 0xbe831a3fbebdf7dcU,
  0xbec26894bdc3030dU, 0xbdde02bfbe865c06U, 0xbe2cb91dbe80eda9U, 0xbe931cadbdfcdf64U,
  0xbdd4d82bbe70121aU, 0xbe3202bbbeb292c2U, 0x3db4d74b3d1a0bc5U, 0xbe10786abeb10993U,
  0xbcb96db43dc9624dU, 0x3d440687be5e358bU, 0xbe7fdecd3d339554U, 0xbdc73878be7fdc3bU,
  0x3d79d32e3e1f5ed7U, 0xbe929b323d1938d0U, 0x3d84df423cc71539U, 0x3dd0c0513dd7ff28U,
  0x3c4b78b33ba0d9e4U, 0xba54c573bd8f5b94U, 0x3dfc6e193e102ac3U, 0xbd7de04f3cf96bb7U,
  0x3cdc63a83d985d4dU, 0xbe3adbe6bb9dc220U, 0xbe02ea55be785c47U, 0xbd013baf3c8e9659U,
  0xbcf2ade2bc8ef057U, 0x3c3b0d26be25c118U, 0xbd2645eebe43a9a9U, 0x3d2625463d07494bU,
  0x3d295a9d3d9dc18cU, 0x3b04a365bb72deb8U, 0x3d80ade53db2856dU, 0x3d3215f43da59fe2U,
  0x3dabf38b3ddc1300U, 0x3d93a5023d0bb469U, 0x3dd427cb3dafe4dcU, 0x3c3f8b533e07b022U,
  0xbd66dbafbcaa0c5bU, 0xbca494033e1bd1dbU, 0x3deda8bf3d2c08f4U, 0xbd8b2c003d0039a8U,
  0x3d9aa7e63d25ca07U, 0x3dc3812f3d8f2b98U, 0x3da742e3bddb6f62U, 0xbdb5f05abd5c0149U,
  0xbdc9abd3bda1eda3U, 0x3dce0741bdcedbecU, 0xbbb6c8c13b14d7eaU, 0x3c23aa5c3ba19042U,
  0xbdfd6bd93d5234cfU, 0xbc278e773ccafe2bU, 0xbdd862afbd5510faU, 0xbe023e5ebd74fcabU,
  0xbd7e1829bd91cddfU, 0x3be1e848bd0b120cU, 0xbca804a8bd014d46U, 0xbd052affbdfc1753U,
  0xbcea8d25bddad4b1U, 0xbe25c9353dcf91bdU, 0x3dae0fd7be2a54a2U, 0xbd91b82ebd845090U,
  0x3d84a04a3cdc3a9dU, 0x3dcb46c8bd2152baU, 0x3c1008c4be3f9c5cU, 0x3d4a64253d6fdb92U,
  0xbddce79ebd2a51b3U, 0x3d34541d3d9e97bdU, 0x3dddaaa73d7264c1U, 0x3dba6f783cd8e65bU,
  0xbe8a52c73c2f2254U, 0x3d5e3966bd01fb17U, 0xbe0635713d185788U, 0x3dcc6f09bd84a5e9U,
  0x3d397f3bbbe5fff9U, 0x3d776a183cf824efU, 0xbe0b52e63a499912U, 0xbd2ce488bdbe8108U,
  0xbe163a573da1200eU, 0xbe40fbd2be21d610U, 0xbbb41539be015d4aU, 0x3d7bf7b73d911b32U,
  0xbdf36e89bdb3ca8bU, 0xbe471360bde22ba6U, 0x3ddc7cb1bdb2097bU, 0xbdde335cbe43342aU,
  0x3c1189f5bd8c519eU, 0x3da1507cbd3044bdU, 0x3bccde5c3d4b740fU, 0xbca3c6d2bde1b7beU,
  0xbdd6f4cbbd9eea29U, 0xbd93e268bd30784bU, 0x3e124916bc1e79caU, 0xbccd94cf3d78d738U,
  0x3dd0b65e3de10fc7U, 0x3df001bbbd624d09U, 0xbd4d01193d2c6328U, 0xbc049a42bdc097a5U,
  0x3e01ac80bce1a79dU, 0x3dcf6e503e2e2720U, 0x3daf76f43c15972dU, 0x3d171ff03d5dff25U,
  0xbdb2dbe93d9e7926U, 0x3d9c1d9d3c07d431U, 0x3cff22573d5185d9U, 0x3ddaf2ab3e5e392aU,
  0x3d3b9ec13d7a708aU, 0x3d8ce1b23d912da2U, 0x3cbbc5923d6d90ceU, 0xbd015e86bdade911U,
  0xbd6c784abc9a22a9U, 0xbd957fb3bdf6114cU, 0x3c3997983e268833U, 0x3d383d1c3cd6ba7dU,
  0x3dcd211a3ddfea83U, 0x3d8d26a33ddf3298U, 0x3d9d8ce93d55f7f3U, 0x3cae1c8a3c9aef48U,
  0x3dce9b173cceda20U, 0x3d85e61d3d9294caU, 0x3def71d63dba24f3U, 0x3e15738f3ddaa74cU,
  0xbc9f65fd3d43b056U, 0x3db1abcabc3858adU, 0x3ceb734f3da46351U, 0x3da691483d1ef1efU,
  0x3d4ed3c83dc3a73cU, 0x3d966fa13db3a66aU, 0xbdbf58cd3d729bfcU, 0x3bed95d33c82c66fU,
  0xbd957f3f3ce9cbfbU, 0x3bccbb5fbd9cece0U, 0x3d2ca5533d48fb5fU, 0x3dac39683d3f7f02U,
  0x3d3afdd23d5d21d7U, 0x3c92942ebdb16e8fU, 0x3c7c658ebd3c43dfU, 0xbd99f79bbbbeeb66U,
  0x3d4872843bcc5dc9U, 0xbc7ddc343b5692d7U, 0x3d94a34f3d99015dU, 0xbdb560543c66f394U,
  0xbcab35debcad6774U, 0x3db07f483ce4faecU, 0xbda16764bd4836bdU, 0x3d2b7fc5bb4a213fU,
  0x3dc21dfe3d5803d4U, 0x3d2093ef3dd26a61U, 0xbd9004bfbbd2d9d9U, 0x3deff3b43c8bdcf3U,
  0xbd07fde63c99ec78U, 0x3d37ed2bbcea7b65U, 0x3dd961e23d46925bU, 0x3de751083df759c5U,
  0x3d7a32f73d36fd12U, 0x3cbcbb12bd974e50U, 0x3d56b7673dac0bd8U, 0xbd8d92bcbd685891U,
  0x3d8a18163cfe1268U, 0x3dad445c3dce8d05U, 0xbccc11fb3dab7582U, 0xbdbbc62dbc4dfd5eU,
  0x3e0176d4bd3f1426U, 0xbe1eb852bd5d8312U, 0x3c86ddcebe28c394U, 0x3d8f67773c188a63U,
  0x3c2248ef3db2c25fU, 0xbdc28e95bda3b00fU, 0xbcf415e1bddf3961U, 0xbda747733db556fbU,
  0xbd3201e1bd80c544U, 0x3d16b6833d553829U, 0x3de062803d94f4d7U, 0x3d110e5c3d159751U,
  0x3d5e3afe3d780935U, 0xbd3987423c180606U, 0x3d880b21bd0951ceU, 0x3db369443dfb4c3dU,
  0x3dd492103d5d181eU, 0x3d9279e23dbd0345U, 0x3d0d7f413deddf64U, 0xbd0b30b93b8173feU,
  0x3d8586743c1cf37eU, 0x3d9cae5c3db2591dU, 0x3d6d257b3da439e5U, 0x3d8e57d23dbf2b8eU,
  0x3d0f2d443dc6c0bfU, 0x3d8f4aa3bce2c012U, 0xbbb649f13cf44536U, 0x3dc9fe0d3d234581U,
  0x3d930e0b3dd81650U, 0x3dcbc99e3d8d5d25U, 0x3dd1fa4a3dbbfb04U, 0x3d2451503d79e456U,
  0x3d1988c2bcacfaaeU, 0xbc465ab3bbe9d23aU, 0x3d9443bd3cf302e7U, 0x3d9804d33daf29c4U,
  0x3d8ac67e3dd02e53U, 0x3db027223d9856faU, 0x3d515bc03dbba1b0U, 0x3e3a882f3d86e454U,
  0x3d4876d53cbbeda0U, 0x3ddbacdf3dd0db27U, 0x3dc80f713d959353U, 0x3dbefdc33df32232U,
  0x3dbb24c43e117f34U, 0xbda404cfbd369734U, 0x3e0934e43da3b93bU, 0x3dda9be73d9cd69cU,
  0x3d4d5be53c49335fU, 0x3d9c5ebf3bd42470U, 0x3df7cbbe3e0b4873U, 0xbd86c360be500155U,
  0x3d57cfbfbb1804c1U, 0xbc8a98e8bdb3998eU, 0x3e4eeffe3dd40d4fU, 0x3d09a8273dd7c782U,
  0x3da566293d8aed8dU, 0xbcab29d53d40d6a3U, 0xbe152360bd0c9d41U, 0xbe279932bdc1ec69U,
  0xbd2775673d0c2f51U, 0xbdcbc28b3ddec0f3U, 0x3d87fd563c1aeaddU, 0x3ac0ee6b3bff0f7fU,
  0xbc822b503c884485U, 0xbc41a107bd0d5a02U, 0xbe815ee6bdbef854U, 0xbd1841febd9b1214U,
  0x3d3a9a5d3c8721c0U, 0x3dccbb6d3d8743cfU, 0x3cd880903d7657f2U, 0x3d8ca78abd471cc4U,
  0xbe2437a5bd75a546U, 0xbd101fc3beb44d2fU, 0x3d8f04383d26a73fU, 0x3dea758f3db7ec37U,
  0x3c2b73923db96a54U, 0xbe22468a3da2972fU, 0x3dc29e023d2d9c80U, 0xbdbf6bddbca31987U,
  0x3d34f5a6bd6ac2aeU, 0x3d8ab19f3cf75025U, 0x3da4277d3dd49286U, 0xbd24d00c3dbd90beU,
  0x3ce411a6bd85594fU, 0xbe352ea93d45cd5fU, 0xbd5a1d13be825f57U, 0x3cae7696bc619864U,
  0x3db362e23dacd7f7U, 0xbda1cf253b63e2a7U, 0xbe113707bdd5408cU, 0x3cb55667be2d51bfU,
  0x3c4879dcbebcf50fU, 0x3da7113f3e2bf5d0U, 0x3d664bcfbce8a7b3U, 0xbd1556843d95e048U,
  0x3dc3196a3e1f687dU, 0xbd116c563d1db907U, 0xbe59da69bdb01f53U, 0x3d859ffbbcfb3219U,
  0x3cc599f33c292784U, 0x3dd99a013dd34ce2U, 0x3d2fa76e3c84a051U, 0x3b82a37b3d591898U,
  0xbe2b81c3be3a2372U, 0xbe04cf25be815bafU, 0x3ce2eb1dbe0a5285U, 0x3dd04feb3d94fac8U,
  0x3e0df2c03d847766U, 0xbd42998e3da295f1U, 0x3db0dc8b3dabcf59U, 0xbe29cdb3be06b63eU,
  0x3e04b7213e0d167bU, 0x3d6ff9a73d24e656U, 0x3d8828253dcb3721U, 0x3cccac293d6a02c3U,
  0x3d25a4d33dfe1297U, 0xbd3a35fd3ddd88b6U, 0x3da41be9be1dbab7U, 0x3d8111d73d7a5e1bU,
  0x3daa2dc13d8c837aU, 0xbb9abb03bc40de43U, 0xbc026557bcbbc7edU, 0xbd9d0610be03ca41U,
  0xbdbdb04bbd82d2beU, 0xbd0541cdbe2e324dU, 0xbe0e857dbde039fdU, 0x3dcf8ccabdc7b8daU,
  0x3e11d2bf3d6c50ebU, 0xbd9c4fa23d26add7U, 0x3c7a3293be0a51ffU, 0xbdbc77413d266c77U,
  0x3b84b6863bd435b2U, 0xbe5c9824bd1e885cU, 0xbdbcf94dbd7ccdfbU, 0xbe5e4c37bd50bf2dU,
  0xbc36fb5e3c95a9c1U, 0xbddc870e3ce75679U, 0x3bb44043bd9db23aU, 0x3c8851a23b8af814U,
  0xbe06e4e4be9b1edcU, 0xbdd36b0cbe675755U, 0xbb02d993be5984f2U, 0xbd5979b5bd5a02dfU,
  0xbdbd6191bc45a6d3U, 0x3c616420bbea6d9eU, 0xbed6304abd8e0414U, 0xbe652c753cb4e401U,
  0xbe6e0e55be41a10dU, 0xbd490635bda113fbU, 0x3e00d4c63d779179U, 0xbdaa2b96bd0ff8feU,
  0xbde2375abd7c4d8fU, 0xbe1b1787be35b924U, 0xbd2d25213d838972U, 0xbe1c4431bdfd8f40U,
  0x3db6a438bdfc3a19U, 0x3cc539883dab2d08U, 0x3d425a85bd6b3fcaU, 0xbdf379e5bdd211c8U,
  0x3d8194ddbcf823adU, 0x3d149332be38d6acU, 0xbe1a1999be6ec77aU, 0x3dfd1fb93d5b57a7U,
  0xbe18839d3af566a4U, 0xbe307885be4f1f65U, 0x3d480886be3b7b59U, 0xbea82d66be6f5ef2U,
  0xbdf68b11bd97f640U, 0x3e2c3e50bdf10605U, 0xbe73afc33bc3ed39U, 0xbe5d94d5beff208bU,
  0xbe15e044beb3ccbaU, 0xbe98abd63bb8ca55U, 0xbe68b2babea57544U, 0xbdcf8ef1be1f0919U,
  0xbd5a3a2d3deeecafU, 0xbe377295bded62bbU, 0xbe579cafbb606169U, 0x3b49bf45be1189b9U,
  0xbd6809913ca3b228U, 0x3c3905bb3c26d2a7U, 0x3cea5b49bcbb44a3U, 0x3de30a75bc86abd3U,
  0xbc5402df3e313622U, 0x3e0bf047bddb365eU, 0x3cb23e00bc8551bcU, 0xbcef78973da54c54U,
  0xbdb07b58bd37c125U, 0x3ddf473dbc62e0f1U, 0x3dbfd7853dc36d06U, 0xbd7d9ac4bd6c581cU,
  0xbd2e6ad63e29404aU, 0xb88ba3febd24f8bdU, 0xbd68f04bbdcd2d66U, 0x3ca0ce3ebd954687U,
  0xbdb31d3f3dbe443cU, 0xbda942e2bd850b22U, 0x3d243371bdb5cc08U, 0xbdc05281bca6834cU,
  0xbea49784be49990aU, 0xbe8fc198be8f1047U, 0xbee5f562bdf8132eU, 0xbe900249bf11c385U,
  0xbe2d556dbe13bdd8U, 0x3cb36cddbc2e0584U, 0x3c5b02f63ca8907fU, 0xbd158d64bd593411U,
  0x3e675dd23d2e25c7U, 0x3d8fe035be68a8c0U, 0x3dc9f2143bf09c4fU, 0x3c4e8a933dbb574aU,
  0x3e07a7ab3d8bb0f4U, 0x3d829f8e3dea74a9U, 0xbc5d28a8bd056640U, 0x3bbf67a03df6dbc3U,
  0xbc86475dbc9d6e7dU, 0xbdbc2d1bbd3e1be4U, 0x3d801886bd261770U, 0x3db0dbef3d2e1d22U,
  0xbdc472fbbe24bebaU, 0xbd2d1119bdf93c3eU, 0xbdde37fabe3186c3U, 0xbda696ed3d67414dU,
  0xbd6951d8bcbbc592U, 0x3d0a04fcbc8eee08U, 0xbd9f7119bd0c3086U, 0xbdae6d4fbd95e26eU,
  0xbe2c5730bdfcc410U, 0xbcb825193d1d65beU, 0xbe2cedc0bc8ab829U, 0xbcefc248bd8e6817U,
  0xbd872c61be182a04U, 0xbdbb3699bd8e925aU, 0xbd5bb16cbd30be0eU, 0xbe85857dbcf50275U,
  0x3ddc9846bddb0e80U, 0xbd8e04ffbd9b712cU, 0xbc6a4a42bd0660deU, 0xbe04ae90bddf9933U,
  0xbb850387bdef9d56U, 0xbde81bdd3dd22533U, 0xbd50fa77be80d4bdU, 0xbc9b8766bdce10ceU,
  0x3dc279003c5e22d3U, 0xbd7c772b3d01bce3U, 0xbe6dfa9e3bc14912U, 0x3df4129a3ca68713U,
  0xbe6875eebda72d2cU, 0xbe1b0a31be4b9af0U, 0x3d72af10bd701c78U, 0xbd94d8db3da1b782U,
  0xbd704a023d5150efU, 0x3d199f38bd4bcc90U, 0xbe2a1a52bd0a3fd6U, 0xbe1921e8beda930bU,
  0xbd814a6dbe071f04U, 0xbc7605483be13198U, 0xbe03f3a3be5620eaU, 0xbd3c87c2bd91dd39U,
  0xbdab6043bdaccb2dU, 0xbdb94558be9d137cU, 0x3dbee3f73db2837cU, 0xbb43b145bde4d2e6U,
  0xbd91092f3c0e34f2U, 0x3daae9e0bcc44ffcU, 0xbcc2d4f7bdb013e0U, 0xbd9ee5b7be0b08bfU,
  0x3d505d473d837d15U, 0xbe3a455e3e0db54fU, 0x3d9d85613d00a4ceU, 0xbdb632ea3cb7223dU,
  0xbd336ad23d2ff94fU, 0xbdb4801abe43402cU, 0x3e2060a6bd7f8634U, 0x3e1e0e90bd3cb516U,
  0x3d45a20f3db37132U, 0x3e053a993d8eb522U, 0xbd91f9743cdd5a26U, 0x3d70660ebd24d86cU,
  0xbd9ddf2abc9b1e6bU, 0x3e299b393c795f3fU, 0xbd69bc033c3c3375U, 0x3c1d52023ccb75d3U,
  0xbdbc3a9fbc057592U, 0xbcab2283bb9a0dbdU, 0xbdcf01b43d9fd8c8U, 0x3c225b0abe978f73U,
  0xbcc5eabbbbdebe59U, 0x3d35e41dbc66cdc2U, 0x3d18ce9b3c996c4cU, 0xbc99b1d63cd44cccU,
  0xbddf4cb7bdb6280fU, 0x3df60b403e72b4c3U, 0xbd545f1ebe564c69U, 0x3cf5dc133c828376U,
  0x3cfd0ba03ca2719fU, 0x3d86e7a13df7334fU, 0x3d34aeb33cde5856U, 0x3ccdcc873d8c0e8eU,
  0xbd3845e43d88096cU, 0x3e3d4d0ebc81a467U, 0xbe5ed05bbe129bb9U, 0x3e155e363dc4d10cU,
  0xbe5c3f06bd08aa98U, 0x3e0a168d3ca5e1dbU, 0xbde00914bc5848f2U, 0xbc3e98573c035e55U,
  0x3d0dba88bd6514a7U, 0xbd2a5007bd562fb1U, 0xbe1988d2bcb38448U, 0xbe5031cdbe8037fcU,
  0xbe1d08d2bd322748U, 0xbe81fc8dbd0fb517U, 0xbe0f7fb03dbfedc7U, 0xbe7c970b3cdde1ceU,
  0xbe483219bc996e8bU, 0xbdf8f515bd0f33b3U, 0xbcff2bd3bd953e24U, 0xbcc3f05ebdb94801U,
  0xbbad25c2bdb5bc0bU, 0xbd7c1dbebe46246dU, 0x3d15240dbe07e52fU, 0x3c40daf7be05cb67U,
  0xbe63fd1f3c496438U, 0xbd7c1561be42dd2bU, 0xbad608ccbd397b43U, 0xbd8748093ccb78e0U,
  0xbde875e0bc8856deU, 0x3c2b6c633d401be3U, 0xbdb3fb43bc1e0385U, 0xbe5b0eb8bdfbce35U,
  0x3ddd85723d6871f5U, 0x3ca23e8abd19fc66U, 0xbdaef9dabe842ad8U, 0x3e12f8243cf02bf9U,
  0xbd7e138a3de44785U, 0xbd179587be4105cfU, 0x3d6680d3bd1ae3c3U, 0xbc3fefb23da12127U,
  0xbe91c698be802ef2U, 0xbc069ba5be9a53e1U, 0xbe7fbb03bc4eed4eU, 0xbe29ce5dbe514899U,
  0xbd675cd8bd0ad298U, 0x3da1ef39bd1b2e4cU, 0xbd8080c9be39a35fU, 0xbe3a8738bd8acd1dU,
  0xbd752af5be1bcd9cU, 0xbe27f853be63cbf6U, 0xbe152540be6d8826U, 0xbdc93bbbbe255167U,
  0xbdd7d5debdb9d0b4U, 0xbc2ef9473e1f52ceU, 0xbd056f8bbe8e02aaU, 0xbd2536553de2935fU,
  0xbdaf7f483d60a950U, 0xbe389c873caabafeU, 0x3cb63608bdd335a6U, 0x3da93027bccf8b28U,
  0xbe8b63943cae2756U, 0x3d92ac653d93e3c3U, 0x3d100a393e275bdeU, 0x3d0ac5da3d5d4b3dU,
  0xbd147aca3d3ba399U, 0x3dda87d83da2ba20U, 0xbe1ed1163cd0b067U, 0xbd0d19e63e061ef0U,
  0xbda5926d3b5dd646U, 0xbd930533be1b39dcU, 0xbd5b46a1bd118861U, 0x3dc326ddbe530d30U,
  0xbd6617b0be839122U, 0xbd45a2fdbdeeebc9U, 0x3d09b0d33b28c362U, 0x3cd422403c723e42U,
  0xbd1b2a003c4b1824U, 0x3d081827bdac7170U, 0xbe2b2a6dbd901514U, 0xba8256f93c32c424U,
  0xbaffe9cdbcd3769aU, 0x3dc4a1073d8eb06fU, 0x3d8418b73e0d2398U, 0xbda9e615bbb8c2caU,
  0x3e14a28e3ccbe539U, 0x3c9491d2ba4ef20dU, 0xbd2998663d647de3U, 0x3d1a8b5dbe2a664cU,
  0xbc76ff353c11dd6dU, 0xbe3d03e8be8ab5a2U, 0xbc609244bd08309bU, 0xbce05c53bd382d0eU,
  0xbbee63df3ce12007U, 0xbe1a2f2d3d86056fU, 0xbdc72447bd2cddefU, 0xbe78ea32bdf7dc20U,
  0xbc9a68123c80da2cU, 0xbd2d2472bc5f696cU, 0xbd264c4fbdc26714U, 0xbdb8b616bb2e610cU,
  0xbb945146be8c68fbU, 0xbe2e5b7cbdfbf9b5U, 0xbdd40b38be1e508aU, 0xbc7d6508bdf4a858U,
  0xbce6584d3d40836fU, 0xbc429aa3bdca3bf3U, 0xbe60e594bd71b500U, 0x3bb9833d3bddcbd7U,
  0xbe170c66bd3b149fU, 0xbd5e016fbd326c8cU, 0x3dbbb3163d9cfb61U, 0xbc99a480bd3be17eU,
  0xbddcc74cbc91c1edU, 0xbc9f6eeabde47dbcU, 0xbdc54c173de2331aU, 0xbdb14e3dbd1a0858U,
  0x3d978c39bcd72899U, 0xbd05df633d857ad3U, 0xbe366c47be2f7e67U, 0x3c7e98cfbe060555U,
  0x3d6a76fa3c202bf8U, 0x3c54544dbe9632afU, 0xbc7405cfbd359141U, 0x3d1592d93e0cf92aU,
  0xbe9e3272be4fe729U, 0xbe961ab6be1f7cf0U, 0x3c845e0fbe00e1a6U, 0xbe9b2205be2ccfffU,
  0xbdf784d5be0e32c0U, 0x3de24290be1aec55U, 0xbe296a64bd97e219U, 0xbd003d5bbcf95112U,
  0xbd1dc662be085a29U, 0xbd040c463c8b1220U, 0xbdbb3df0bd92c15eU, 0xbde348b9bd61c46eU,
  0xbdbcfd09bd40948eU, 0x3d9f40053cd235c4U, 0xbe4d6ddb3cd12957U, 0x3d0cde883da6929eU,
  0x3e0dd0583d9146c1U, 0xb9d099a83c9e9752U, 0xbe093aa5bd5bfbd5U, 0x3d1b17c0bd08061eU,
  0xbd1fe9b4bbfcb411U, 0x3de070c0bd86c5c3U, 0x3d0dc1e63ae1fb34U, 0xbd4a705a3dda6b0aU,
  0xbd5e6df93ce406afU, 0xbd99bad83c9d9a0fU, 0x3d88503dbe05c2bfU, 0x3ce42ee4bdf9a46fU,
  0x3cca6cbbbd2145b1U, 0xbe6b10e9bcec76c7U, 0x3d9b9894bdf429c7U, 0xbe1ed9acbeb46210U,
  0xbe143cccbe67b99fU, 0xbcf19f86bdc5ecbaU, 0x3d0aeeabbc934771U, 0x3e2843293e218e15U,
  0x3d571c193e0f66d3U, 0x3dd98cb73d84e80dU, 0xbc9ba441bd3a0962U, 0x3e281d163ba6c8a7U,
  0x3e0564333ddac554U, 0x3e29f3a93e0742ecU, 0x3e72551d3e2fc0a0U, 0xbd07ddd0bd7d67e6U,
  0x3dd739f5bda05634U, 0x3df8a97a3e817d55U, 0x3e12e7be3e0d1a1aU, 0x3d81eef33e0dcf0cU,
  0x3e2d0ee13e03e121U, 0xbe9761e8bd29fee7U, 0xbe20b12cbe0829a3U, 0xbd99cdddbe60b6e8U,
  0x3e512baf3bd1dc36U, 0x3dfef44e3e6642b5U, 0x3df581443dcc214eU, 0x3cbb5e2f3d6b41abU,
  0xbdde83bbbd842845U, 0xbde4050dbe1fd44bU, 0x3d5610aa3b87a574U, 0xbe29013d3dcaa965U,
  0x3ba0efb2bddfe000U, 0x3d2b74273de5e3c2U, 0xbe2d5a4cbd874623U, 0xbdec00ec3c950e4eU,
  0xbe263e7fbdf96c93U, 0xbe433c53be7c3f58U, 0x3dd9a6683d14a231U, 0x3e020d133e21e4cbU,
  0x3ba924803e0bf247U, 0x3d03ef153e7701bcU, 0x3cd7b3c93da326e9U, 0xbef3980ebd8fe7cbU,
  0x3d9f8c2a3d50ce2dU, 0x3dc3867b3dc6803dU, 0x3e1b55413e53e2b0U, 0x3e1467143db45b91U,
  0x3e6dba0f3d01a247U, 0xbea0e7153e698495U, 0x3c9d33fbbe80578eU, 0x3e4366b13e009e31U,
  0x3e1e58193e22c5efU, 0xbab2a1aa3d61a895U, 0x3ddd83033c05ba0cU, 0xbc9778a1bd06769aU,
  0xbdd6075dbf029ff0U, 0x3d701ce53da42ffbU, 0x3dd1e7b03d59403bU, 0xbe054d5a3dfa4af3U,
  0x3de32f2e3c28d321U, 0xbe89873ebe143ae8U, 0xbe3fccf5bdfbf710U, 0x3e6243173e5b6dc6U,
  0x3d5ff7143d8ffaadU, 0x3e330a8e3e3566a8U, 0x3e16dba63dce0e7cU, 0x3e0eb5543e57f3b3U,
  0xbdf9dcba3d4256c9U, 0x3bc92b60bea21f3fU, 0xbd2e86943d834df2U, 0x3e311dc33d82e7a2U,
  0x3dfe1b7f3e292579U, 0x3e52ab703e33b0d5U, 0xbdc71cb53e27fea7U, 0xbf22d9a3be948af8U,
  0xbe09264abe4a3639U, 0x3dce96ccb95d109aU, 0x3e0e3f753e2ae945U, 0xbce760eb3d9ad30dU,
  0x3e55e995bc2e15adU, 0xbeaf0c583df1f6f0U, 0x3e5eb7f3be6209f0U, 0x3e44b7ab3e19b842U,
  0x3e09a7463e00babbU, 0x3e1599753e0f1509U, 0x3e632ff43e07ad82U, 0x3dc80bb53e089d86U,
  0x3e1cc2fd3e178d19U, 0x3e0380ef3e1d87e7U, 0x3e177a983e1ef198U, 0xbb0fb88d3e0a2fd5U,
  0xbba77e9fbc365014U, 0xbd1c383e3cbcd961U, 0x3c977a04be2334dfU, 0xbe5fd41a3c0e77b3U,
  0xbd83c550bd047616U, 0xbdb84795bdf8313dU, 0x3da5bbf93d246f76U, 0xbc13ade13d834526U,
  0xbe687011bd956465U, 0x3e2c9ad6bcbf5fbeU, 0x3cd13f3bbd4ecc96U, 0xbe05a7c13b40b9b9U,
  0x3d9b7af0be4d3d13U, 0x3d1cd9093dc0fce7U, 0xbeb2360abe7742e2U, 0xbd9c2c1cbcf78b30U,
  0xbd75ef45bc9acc09U, 0xbcd7384f3c1c58dbU, 0xbe5ca1ec3d37c410U, 0xbde4bbd7bd510380U,
  0xbd6ed18abe57831eU, 0xbd30dae5be017382U, 0xbd302a5abdd23c5dU, 0x3b983c5dbd73ad4cU,
  0xbdc958adbd852292U, 0xbb6da50abeab9ef2U, 0xbe5a95a5be5f4206U, 0xbd6d5d8bbdec0033U,
  0xbcfec16bbdcec377U, 0x3d1d9c5e3d450c1eU, 0xbda6ffbcbd3b5e86U, 0xbe5dee83bd0124dcU,
  0xbe31ad56bdf928efU, 0xbe0e267dbe1fbbedU, 0xbdb18e323cae1735U, 0x3dfe349b3d55f2e3U,
  0x3d006cab3d38fa8dU, 0xbded178bbd7bd935U, 0x3d148197be3b6ab0U, 0xbd921bf13d827f7aU,
  0xbdd01c6f3c7a6c6eU, 0x3c6e008dbe0c0306U, 0x3d092d663dd89554U, 0xbe71b885bdc5983dU,
  0xbda90aacbe2dba54U, 0xbd5b298f3d8258a3U, 0xbd4b761abd031065U, 0xbd8d574ebdaa3af0U,
  0x3db6b33d3d32ee7aU, 0xbecc986ebdacddc9U, 0xbe6c283bbe8816e0U, 0xbd3d4e43bde70e4aU,
  0xbe7bc038be924203U, 0xbe1f83a3bddb4740U, 0x3db88ef5bdf7ba45U, 0xbe352342bcd5817aU,
  0xbd3eabdabdd6b827U, 0xbe4980c2be8e6b54U, 0xbe502438bd4fdcd3U, 0xbd8efd833c98f90fU,
  0x3c812783bd62dd8eU, 0xbd0385913d1a2f3dU, 0x3dfd0aebbc0b386aU, 0xbe8a7cdcbd390950U,
  0x3d9fd2fa3d0492c6U, 0x3c4847e5bd4c81f0U, 0x3d89d1853da6848eU, 0xbd8d18d6bd2ef6d2U,
  0x3d78274f3ca34b4cU, 0xbe038da23e011c1fU, 0x3dc459cdbddaf74dU, 0x3dc81494bd1c6eccU,
  0xbd9796343dcb0b9aU, 0xbd1ff5653d05773cU, 0x3d01e3b53d30e108U, 0xbbbeaca4bd571f5cU,
  0x3cd64410bd9942f7U, 0xbd9463e6bd81bb62U, 0xbe25fa19bdf93347U, 0xbe63acebbdf56e97U,
  0xbc2cf798bdd210f9U, 0xbebd0f75be89ab5aU, 0xbe249586be11c8feU, 0xbc1374e6bd989dd6U,
  0xbd8ac1f4bdcc61d2U, 0xbe4513b9bdcdb98cU, 0x3df4214c3d8a54f4U, 0xbcd5a308bcfe7f37U,
  0xbd9cb12abdc87e7eU, 0xbd000c863d83c05fU, 0xbdbda9b7bc9e8b27U, 0xbe363c10bdb44eafU,
  0x3d8f0e643d4bab03U, 0x3dd19dec3dc0d928U, 0xbd32a7b5bd82ac29U, 0x3d0a5f06bdc201d0U,
  0xbe10c232bdeaeb75U, 0xbde59824bc5e202fU, 0x3e9a18d33c4a29fdU, 0x3e0113983e2a478bU,
  0xbdfbde333da853c0U, 0xbe84c150bd6a1b53U, 0xbe37d648bcf59f1eU, 0x3d3444febda43af5U,
  0x3d907a8fba45bda2U, 0x3dc7ebe23dc0d480U, 0xbd4f27e4bd753817U, 0xbd95277fbcc46517U,
  0xbdca1f10bd3cdb69U, 0xbe5866c0be5c2405U, 0x3e1c50b93d9d2cb7U, 0x3d12e43f3d8c9a90U,
  0x3de955e53d16f8f6U, 0xbe10b4d93bc63750U, 0xbd9a2134be621520U, 0xbdf5e04cbe490465U,
  0xbd83b30dbe174e2eU, 0x3d3623053d89161aU, 0x3e383e74bd58560bU, 0x3d3084993df49f57U,
  0xbe4bd0b2bd199064U, 0xbe38cbaabd8e08d1U, 0x3e7a5b47be470598U, 0x3e451335bd82787dU,
  0x3d24d3613dc45d15U, 0xbba1a4773cd32d72U, 0xbe5ecd7b3d8cf455U, 0xbdb9ee2cbe6a9f1eU,
  0x3d447a11be80d5b9U, 0xbc82ecaa3e96a521U, 0xbe29b95b3d134b51U, 0x3dca2222be09d885U,
  0xbd425b023d29d1efU, 0xbe50b6663bd90620U, 0x3d97df0c3c34d271U, 0x3e90c3403e4b2d61U,
  0xbd4ef3c43d282a56U, 0xbd9ba89bbde667b7U, 0x3bf8ad27bd4e2f43U, 0x3dd1ed513e13d6f6U,
  0x3e757c40bd0ab507U, 0x3ee8f31a3ee4ade1U, 0x3ded40403ec554b2U, 0xbd62e9f53d98e5daU,
  0xbd6efbc3bcaf0026U, 0xbd80fa123c726c98U, 0x3e8456b1bcd1f5c3U, 0x3e9f0ee43ecc9c7bU,
  0x3e96734d3ec8067dU, 0xbbfaf26fbd64dca2U, 0xbd0b5ac6bdb9cb66U, 0xbe200e2abd5ec695U,
  0x3d92455e3d876a3dU, 0x3eded6193ea20a4dU, 0x3e0646da3e814549U, 0x3e1852d03dd8aac4U,
  0xbd4790753cf111cdU, 0xbe217980bc3f55efU, 0xbcab52b7bc4b7811U, 0x3e10390b3e117bc8U,
  0x3e5e81a23e438e17U, 0x3d8b9e833de23736U, 0xbd4c14f9be415a5aU, 0x3ddeae9ebdeb5706U,
  0x3daf96873cba57c2U, 0x3b70fa3fbd98fcc0U, 0xbdcc68aa3d40d6f1U, 0x3cd67e78bd8af0a8U,
  0xbc0ee3243db60e21U, 0xbcf62e4dbc9953b3U, 0x3e17d8e83d7b8ae4U, 0xbc2b2d9a3e2b4671U,
  0x3d7a57913d03a2daU, 0xbd0b8e49bd4e6504U, 0x3d45a08f3d95d7d2U, 0xbd7fa14abbb40362U,
  0x3ccede45baca0d21U, 0x3d8ce92e3d8afdcdU, 0xbd52bcc13d08e5a0U, 0xbd2dd94fbceee412U,
  0xbe159a64bda4837eU, 0xbd4fe8fcbd9b7dacU, 0x3d7d267f3c828e14U, 0xbd0fee903d1c1513U,
  0x3c5511493c158822U, 0x3d22a103bc827c15U, 0x3b94f76cbb1124f4U, 0xbda13b11bd95b197U,
  0x3cf1f1d63df44375U, 0xbce61fa83c459862U, 0x3d066f6d3ce964a3U, 0xbd549da9bc390116U,
  0x3b8e6c9fbd283c53U, 0xbc829e45bb375489U, 0xbd425af0be004fb7U, 0xbcec54a7bd4dba14U,
  0xbd331e28bdaece38U, 0xbe439612be23db38U, 0xbc4db207bcbf270cU, 0x3acffb853d976c0dU,
  0xbda5d54abca8f0eeU, 0xbde5adc4bd169280U, 0xbe484a9abe1a64e7U, 0xbe116188be3f50d2U,
  0xbe466d0bbe55ed17U, 0x3d070e7dbdb5f0fcU, 0xbd0ccc4fbca7817eU, 0x3c836da23dc35d5bU,
  0xbdbd6037bdc49d0eU, 0xbd163b52bdaa5044U, 0xbdb19195bde20317U, 0xbda236fdbd720ad5U,
  0xbcb6fd20bdc70084U, 0x3cb52d5abda676a3U, 0x3da8b86c3b6db7fcU, 0xbc637be43c8547a8U,
  0x3d8630e43d4b9534U, 0x3cf2a3643d8a3842U, 0xbd3afacabd57a50bU, 0xbde3f917bd4e0e91U,
  0xbba1db6e3e2d9bf7U, 0x3d23c3693e07c699U, 0x3d3d84523d0631dcU, 0x3d6fcc863dc806d8U,
  0xbd73a4cb3cb46c31U, 0xbbad26d0bd68596fU, 0x3dd36ebdbd4a2072U, 0x3da1a9a93c3816b4U,
  0x3c9a11f63d3d5189U, 0x3db0b9fd3d670f82U, 0x3d9b22d73d9a5702U, 0x3ce74c0b3d31186cU,
  0xbcf5efc53c964babU, 0x3e16330e3cd29c40U, 0xbba4c8adbc89d5d2U, 0xbc005207bd1b85b1U,
  0x3c2f75ca3c30a5acU, 0x3dd56a203d01039aU, 0x3d92a42d3da25a7fU, 0x3d8453463dc897d5U,
  0xbd936363bcbd1522U, 0xbac6028dbc1224aeU, 0x3cdc6845bbb9c6baU, 0x3d5d53963c93f19eU,
  0x3da6adac3e0e9af1U, 0x3db04a563df736f7U, 0xbcb0d9173dccbb83U, 0xbe266174bd835b14U,
  0xbf031a4cbed26b44U, 0xbe4a3c59beb1a6cbU, 0xbeafb27abe90af59U, 0xbdaef29abe97d19eU,
  0x3bf63b7abd071529U, 0x3d0e4de73cb6fb20U, 0x3b9c550d3c43254fU, 0x3d65f8783d638a69U,
  0xbe12e38d3d33913fU, 0xbbbf7d8c3d995ef9U, 0x3d1b6315bc93f7a9U, 0x3c2c17463cfc4755U,
  0x3bfa0b243c73342cU, 0xbd74ebf43bbcc74dU, 0xbbe0405bbd731cebU, 0xbe0c6edebe7ffcbbU,
  0xbd7698aebe03a46eU, 0x3968b9b43db35814U, 0x3cb5826a3d356b66U, 0xbc6360debba4926aU,
  0xbd660501be8354b2U, 0xbe55de61bdec4e3dU, 0xbd77c52cbddb6e42U, 0x3dd95bdb3d8b2cf2U,
  0x3c2b9af23c5c48c4U, 0x3da597123d5089f3U, 0xbedd694fbe7854c6U, 0x3c09bfb5be2010d3U,
  0x3d87bbb43cc8a77dU, 0x3df32823bb30b250U, 0xbcd3dc473e19a97aU, 0x3d9224c23c80a077U,
  0xbeb5d3fdbd4944a9U, 0xbe6c1440beb80771U, 0x3d4661a9bcbd8123U, 0x3e1c76ec3e11fb06U,
  0x3d83367a3d4c7a19U, 0x3c3dddf5bd5c3ed0U, 0xbe2febd0bd5fba14U, 0xbeef11a1bec9c880U,
  0x3d05245fbe922afaU, 0x3dcda6923e0ccfaaU, 0x3d70a1683e3cbe4cU, 0x3d80cad53d17a8f8U,
  0x3cf227c43c6f5384U, 0xbf0230b9bde6c502U, 0xbeae8700befdbd74U, 0x3d9ad9d53d4e554bU,
  0x3dae11bd3dadc9d9U, 0xbde2c1a4bcae3011U, 0x3c8dc9853c4722dfU, 0xbe0596b23d8a9e47U,
  0xbe58065bbeb21568U, 0x3e0eb200be7c772dU, 0xbabbab453e20e550U, 0xbe34ae82be4fc78bU,
  0xbd21f342be43bc2bU, 0x3dee70ba3cd5052dU, 0x3d192fb43d5d2148U, 0x3da695733c932287U,
  0x3ba0be603d92434dU, 0xbe9b35e5bdf3d6e8U, 0xbdf12a4dbe5d4b1eU, 0x3d084aa1bda03fa7U,
  0x3c91e3dd3bba2cb9U, 0x3e2fd9113d894ceeU, 0xbdcf028cbda610d0U, 0xbe21f572bdbe0eebU,
  0xbd7270b4be236752U, 0xbd46c209bd9ddd70U, 0x3cadfd9d3d1f3e80U, 0xbc8cdbaf3c2e9061U,
  0xbe032745b99af785U, 0xbdede31dbe7d90d5U, 0x3d9bce28bdc1dc16U, 0x3bd839cc3d745be1U,
  0x3d0a9fb33d068c77U, 0x3dad869e3d43af80U, 0xbe516b82bd9c7c19U, 0xbe836228bec57f4bU,
  0xbda4d811be8e8586U, 0x3dab32283c0a0313U, 0x3d8d44b83d7282c3U, 0x3c8760313c57ebcbU,
  0xbd9cad83bad0f45bU, 0xbe126371bdf337edU, 0xbe4ae8c4bd6f4153U, 0xbdb316e83d2ac16fU,
  0x3c454b91bca874faU, 0x3c692cd63d591c6eU, 0x3c9bf5d53c7063a2U, 0x3c7212a03c2e6053U,
  0x3d3c58aa3cc18586U, 0x3d5ee7023d44a2d6U, 0x3d030a2f3d508560U, 0x3d192cc43d3c13a5U,
  0x3c9b95d83ccc1d3cU, 0x3ddafe583b0f2fc4U, 0x3e4899713cc410c9U, 0x3e8035433e15c360U,
  0x3d41a9ba3cfeebddU, 0x3d12023c3d48d097U, 0x3d0dcab73d11d3c3U, 0xbbf76db2bc06bcafU,
  0x3e47db683e15518dU, 0x3ddbdae63dd5ac87U, 0x3dea8ef53e321ba4U, 0x3d87a03a3d416115U,
  0x3cccc6053d588f57U, 0x3c9756cd3d4fe18cU, 0x3e0313fabc4f9958U, 0x3c7109a23e08b675U,
  0x3e3636cc3e14d146U, 0x3dd5225e3e8be217U, 0x3d4d37133b9d95b1U, 0x3d3998fc3cb3d1adU,
  0x3d8812fe3d9ff610U, 0xbcf5bd783d8737feU, 0x3e17e6273de427a6U, 0xbb2f62683e1d8efaU,
  0xbd39d1eb3bc49e27U, 0x3d28851ebc87323dU, 0x3e083956bb68be61U, 0x3e0a40253e40fb1fU,
  0x3daf09133e3e868cU, 0x3e64cb263da69771U, 0x3d2d99a03e06e8d4U, 0x3c56f6013c12f119U,
  0x3cb522393b299ee6U, 0x3bbee9383da368fbU, 0xbe462fd8bde0082cU, 0xbe864b9abeb94416U,
  0xbeba3831be05854aU, 0xbe0757f0be8dfce5U, 0x3ce42323bd53e8b2U, 0xbde9dad63c165b4cU,
  0xbf106419be5f9784U, 0xbf02b863bf21a3c2U, 0xbed5fb5dbee631a4U, 0xbe709c7ebf0e75d9U,
  0x3cad2bf0be3dcf69U, 0x3dc4a1603d584d2aU, 0xbe0bbaddbc67e643U, 0xbf027f86beb907cdU,
  0xbeab57f7bee7537dU, 0xbe83835fbe4a24afU, 0x3e84da873d83e59aU, 0x3d5657bb3e4ba858U,
  0xbc48000b3d63bd39U, 0xbe004eb2be0999cdU, 0xbe67b1fcbe5d5a99U, 0xbd80c32fbea2f9c2U,
  0x3e9348ea3e334d40U, 0x3e5e58433ec32d86U, 0x3c73e9653ce8139fU, 0xbe15d5c83c12ac7dU,
  0xbd005e3fbdafcd90U, 0x3ddcb0b4bdbc3094U, 0x3ec8e0b43e72a221U, 0x3ec29adc3ec01a4cU,
  0x3cf00f3a3d89bdc6U, 0x3d8e6cec3d7ff4d5U, 0x3d923518bced96b9U, 0xbd52bbbcbd8abfd9U,
  0x3d879f36be00293bU, 0x3e184eda3d9871b7U, 0x3d3775253e2cf18dU, 0x3cf76ab93d3470a0U,
  0xbcbacc353d2f05d3U, 0x3c8470f93de0bfd5U, 0xbd3841633d53700cU, 0x3c1829f53db28471U,
  0x3c11f2f23d77f8c3U, 0x3cea3e143d6989a5U, 0xbcef7af1bd8cc084U, 0xbe299fb8bda3d65eU,
  0x3dd002a63e07bbecU, 0x3d362f883df6110aU, 0xbcadd9ef3d6f48baU, 0x3dad4ba4bccc9124U,
  0xbdeef18a3da2a30fU, 0x3ce15d45bdb361aaU, 0x3d8e7c443c92925eU, 0x3d3154013d9f2580U,
  0x3d880e4a3d04b4e6U, 0x3d6e4e5cbcc9b5deU, 0xbe012e49bdfad1c6U, 0x3d5f0d2a3c9a5e79U,
  0x3c29546d3c908eb5U, 0xb97b314b3da2f54cU, 0xbd693c6a3d8d6031U, 0x3bd3ecbdbcaf23caU,
  0x3a65721f3dae4b62U, 0x3dc16888be1c7f83U, 0xbda23813bdf9c518U, 0xbd95ed60be2e5456U,
  0x3d2d3e08bd2a80fcU, 0x3da8a31d3d8d9b20U, 0x3ce4e3183c9a3fbdU, 0xbe9dc2273da1bd8aU,
  0x3dd40366bd8ae3f4U, 0xbe70bcb43df56686U, 0xbdd49d8dbda7938dU, 0xbdd6ba7cbe6d75a0U,
  0x3d1f7064bc053b99U, 0x3cfd1dfa3c3a1ca5U, 0x3c95a970becd6d8cU, 0xbd2851b0bd4b7c77U,
  0xbe04f26abe1928a0U, 0xbe23712ebda25750U, 0xbdd554ebbe7717a0U, 0xbcf249d33d9cf3a1U,
  0x3dafd651bcaec0c1U, 0xbd75c673be1b2d80U, 0xbeb01ec3be76ed84U, 0xbe252d51be8e2b0dU,
  0xbdb6f52fbdb72ea4U, 0xbd941b6cbdbef0e4U, 0xbe42e206be146a14U, 0xbdea07883cc524b0U,
  0xbd3ed94d3d8dc8ffU, 0xbd63275bbe22e746U, 0xbd203256bd878204U, 0xbd40851c3ca9294cU,
  0xbd86aaccbdf5ecfeU, 0x3dc02d2cbe987d9bU, 0x3dea5d61bda40a5bU, 0x3cbbc7d13d864943U,
  0x3bbf7d4a3d79e1e5U, 0xbd1441d73dec733aU, 0xbda983b1bcf1145fU, 0xbd42dda4bce082aeU,
  0x3da6d9c23daf6641U, 0xbd9a2b42bb7f74fcU, 0x3d17b799bb481fc6U, 0xbcbf6f3c3ca33b2dU,
  0x3e35759b3df455c1U, 0x3d826f493dbb1e10U, 0x3d8d5dd83c8b2a12U, 0x3e0a0969bd1c12c3U,
  0xbb8b6f14bd3418faU, 0x3d8f22653da684d6U, 0x3e00104cbbd78d11U, 0x3e2a63dc3e0077b2U,
  0x3cf389e13e17e5b8U, 0x3c0efcff3d217368U, 0x3e28f9863d1a04eeU, 0xbb932b473ca9fc3eU,
  0xbd05d612bd54db6dU, 0x3c0654cabe053255U, 0x3e07bd7d3cdaa276U, 0x3e9b4f913e15b9e6U,
  0xbdca5105bd737af1U, 0xbe5c49a9be49ac27U, 0xbe4b3b1ebe284aaaU, 0xbe78b5d1bd60ee35U,
  0xbe45fe93bcaa4382U, 0xbdca0606bd99d40aU, 0x3c91b8dc3e1086c8U, 0xbd688c99bc3bf267U,
  0x3e1da0dd3e024e88U, 0xbda033db3e1a6248U, 0x3da34adf3e26a844U, 0xbdb550e5bdb60f05U,
  0x3cf6ecab3cd1d380U, 0xbd8e030fbd9d6fcfU, 0x3d2b5d78ba7349feU, 0x3d8bbbd43d13756bU,
  0xbc8fc4393ade99cfU, 0xbd12ced5bb93faa9U, 0xbe0caa41bddcdebcU, 0xbdadb6dcbc20fdfeU,
  0x3d11cfd9bb258e76U, 0x3c12d388bc175f11U, 0x3c1995643d9b11b1U, 0x3d26e2bfba314480U,
  0xbcdac68e3c94ee52U, 0xbda75e18bd228379U, 0x3dbc4cf13d41653dU, 0x3d419e493c8fc72cU,
  0x3d6f1f0b3db5bdceU, 0x3cda4c22bc3f036bU, 0x3d22b57a3adbf6ffU, 0xbd5e34df3d16b081U,
  0x3cd291a8be9133c8U, 0xbdd1bd62bd8fcb14U, 0xbdc87b71bdbc3127U, 0xbe0bb866be0fd4c0U,
  0xbd80cad4bd449945U, 0x3d13aae13c76c9b5U, 0xbe9f580dbd7d19cdU, 0xbe0709c9be7d40b0U,
  0xbe6bd33fbea67528U, 0xbe6fa45ebe77cfbaU, 0xbe2f9c7dbe8d76a1U, 0xbcdfebfcbd3dafedU,
  0xbd2df33cbcbf388dU, 0xbdf050d5bb989f42U, 0xbe3df9d2be68a377U, 0xbdc43285be163756U,
  0xbe0f205abdf02a2cU, 0xbe13dbb5bd62a790U, 0xbdebf266bda44a1bU, 0x3d7ff08bbe4620f7U,
  0x3d8115793da9412fU, 0x3c4d96d73bd35f63U, 0x3d8996c03d34040aU, 0xbc8d29483d7e4060U,
  0xbdc5978dbdfa00f9U, 0xbe1c39dbbe11990fU, 0x3e080da03e70fca1U, 0x3d6f45893df23a01U,
  0x3d89cc3a3a944a57U, 0x3db9dded3ddf797fU, 0xbd9ebbd53c9eaaa7U, 0xbdcbd8a1bda17cb2U,
  0x3e512de2bd77a003U, 0x3dba3e25bc4f1b78U, 0x3d3539ba3c986b09U, 0x3dcc627b3dac3400U,
  0x3d9a53243dcc2562U, 0xbd83b0ecbc21f007U, 0xbd5dc91fbc550705U, 0x3e217b4c3e0b960dU,
  0xbb4870383c4eb951U, 0x3dbc6ef1bb83e9c6U, 0x3d412ded3d4a7d47U, 0x3e008fb73bf7ec03U,
  0x3bb9b1133d9b718fU, 0x3dcbcae33dc022afU, 0xbb14ba64bc0bf75aU, 0xbcf7ef1bbbf8cf4dU,
  0xbd4374bc3cad88caU, 0x3c9abbcabd39c113U, 0x3dc30beb3e126fd4U, 0x3e1b73dd3dab30a6U,
  0xbdf95df63e38f0b1U, 0xbe5b50a1be72334aU, 0xbe40f0dabec5ed56U, 0xbca42248bdf1b38eU,
  0xbe0949493d823f80U, 0xbd12145bbd19305dU, 0x3db8cdd33bb1c811U, 0xbbc845b4bc60117aU,
  0x3c1299b23bdc873aU, 0x3d4961193c2866dbU, 0x3ea9787e3e2b1c57U, 0xbe15cb2cbe42148dU,
  0xbd3a97d2bd9b2d0dU, 0xbc8ee564bc8458b8U, 0xbd51f19fbdb96236U, 0x3ea5cc813ebdd322U,
  0x3f063f0a3e8938f1U, 0x3da4b25d3eb370d3U, 0xbe89a0e6be62e186U, 0xbc057af8be38e5feU,
  0xbdc807fe3ca5db88U, 0x3e81ce4a3d819d90U, 0x3e6172993eb04ba5U, 0x3e486f5a3e4b576cU,
  0xbd807d653e135a8cU, 0xbf157a13becdc231U, 0x3cce8f4fbe8a040fU, 0x3e057a743c9eb22fU,
  0x3e1e49943e341601U, 0x3e28ea373d9360caU, 0x3d2a2d0e3c6f8c8eU, 0xbee55575be234afcU,
  0xbe5544a9be857393U, 0x3decbf373dee5fd8U, 0x3e5a45f73db88d0eU, 0x3e1f534a3e60e101U,
  0x3e40a2023ea513a5U, 0xbe509cc3bdcdd74cU, 0xbdc77fb7bdf1f3cbU, 0xbe0cd834bef220bdU,
  0x3ea0bf603c2434ccU, 0x3eea2c553ee31b87U, 0x3e29be8a3e859fc6U, 0xbdf4330e3e330f40U,
  0xbe38e521be6b9bcfU, 0xbc30d747be20ee87U, 0xbda855f2be08712aU, 0x3e84bce33da8b3d9U,
  0x3e891ac03e4fe5b2U, 0xbe639b8cbdb38bb2U, 0xbe2fd02ebe7acb84U, 0x3ea36977bce2eaeaU,
  0xbcc0f5003f106540U, 0xbe677ecabe17b032U, 0x3e4f98253d2f1651U, 0x3bb08dc63d47884dU,
  0xbe55aafcbdb5e61fU, 0x3e3361133ce35fccU, 0x3ef630ae3edf122eU, 0x3d8ea9783e76203cU,
  0xbddb0b51be2c031dU, 0xbdd7f965be5bdd77U, 0x3d313419bc5d3fc6U, 0x3e6575cfba3dec81U,
  0x3edaef543ec11499U, 0x3ba4c57e3eaba9b4U, 0xbceaab7e3d4b7c74U, 0xbe200180bd1e381dU,
  0x3dd3cac1bd8180a5U, 0x3ed4e25d3e941453U, 0x3ed813e23ed38f01U, 0x3ea780903eae7cddU,
  0x3bb1898339812e81U, 0xbd2ddb8abdfb4ddeU, 0xbdbb2badbde13c1bU, 0x3e4e0c1fbc0cae3eU,
  0x3ea8f5453eae1edaU, 0x3d9570473e361547U, 0x3de01832bcb10379U, 0xbc2117fe3d4baf91U,
  0x3cc269703d122b1eU, 0xba9e90c73d79e1b4U, 0x3e5b72db3dd1ff93U, 0x3e8e547a3e99fcfdU,
  0x3e75e7e53e84b9c3U, 0xbe1ffb07be981d1aU, 0xbd2fff9abe2fa89aU, 0x3ce6efe93d76d5a7U,
  0xbc81d8ee3b4a44d0U, 0xbdccf0c43d59aa96U, 0xbd303056bdacc36bU, 0x3b1a9b7e3e41ad8fU,
  0xbd0505313b769521U, 0x3e0dd068bcd8af9dU, 0x38f885283de00ecbU, 0xbd6830a53dc6288eU,
  0x3cff3bb33b009f63U, 0x3c8e37f03cfcab42U, 0xbd95c1173d35650dU, 0x3c501c9cbd5fe2aaU,
  0x3d1779753d6b16beU, 0x3b94ebae3b5408f5U, 0xbd94e3923cb527a2U, 0xbd92ec88bda35dfeU,
  0x3ca0bb7d3b8d1ccdU, 0xbb8c7ef63da46b57U, 0xbcdf1a1f3d651199U, 0x3d3525ebbc9de35fU,
  0x3da1cd8f3d89815aU, 0x3d6d066e3d63fc87U, 0xbd22c6dbbd84c704U, 0xbd1b5aeb3e1119baU,
  0xbd91eea6bd0def70U, 0xbbb6b4273d52ba82U, 0xbc21e43fbd76e284U, 0x3d4acc09bd112ef5U,
  0xbe4d75ca3d5892dcU, 0xbdc70d87bced58a2U, 0xbda74773bb43248eU, 0xbe0b99e4be218daeU,
  0xbe038300be0d83f2U, 0x3b4a1c213d8c24e0U, 0xbd5cc7883dba812fU, 0xba0cc342bca536caU,
  0xbda42dfbbcd7259fU, 0xbe53134fbe0ebb96U, 0xbdd8eaaabe7c8359U, 0xbe489956bea1ea02U,
  0x3d954c6f3cc02ba6U, 0xbd23253dba4a93dfU, 0x3d86c82bbc5da13bU, 0xbb550b4f3ca259cdU,
  0xbda06b6abdcb1515U, 0xbd4a9487be02a583U, 0xbe1b947cbe148578U, 0xbdebcaa2bd8a915eU,
  0x3de5229fbe0888bfU, 0x3d89619d3d09efaeU, 0xbda64f15baf25239U, 0x3cf70aec3dab1336U,
  0xbd33f4fb3d13e3ccU, 0xbda10667be0c1784U, 0xbe0ee7e0be0c03e6U, 0x3d1ca5c03e133864U,
  0x3c1627b73dadf184U, 0x3dcb39743c8d75f1U, 0xbc1874ce3da8fe85U, 0xbdc9ff80bcf6ab0bU,
  0xbc03445bbe0ac8edU, 0x3e54a9993cbc81faU, 0x3d202ec43ca3a46fU, 0xbd28fab73d7bf0d1U,
  0x3dd953b63dc3d941U, 0x3d60f05c3c4faa0bU, 0x3d68a9713d12263dU, 0x3db457583b1d4482U,
  0x3dfdf9903dee3fccU, 0xbda75074bd381223U, 0x3ca420103c3f73b4U, 0xbd51b1613c08f1b2U,
  0x3e21bed43d4de2fcU, 0x3e1f96a63e347e15U, 0x3ca239983d930fb6U, 0xbbc170a5bc828d05U,
  0x3cb34a7dbc28f756U, 0x3d09fe843d0278c4U, 0x3e2ae624bd76214cU, 0x3d4089483e05985eU,
  0x3d85e8c33e08f8f9U, 0x3c8a609b3d11fec5U, 0xbe121da5bd3dbae6U, 0xbe3871ffbe750605U,
  0xbe3bdf5abcf60097U, 0x3b741554be8e6af3U, 0xbd51ca03bdcee6c2U, 0x3d340dfabc89e0f5U,
  0xbc19b6e93cc60a51U, 0xbc1a4955bbb2bff6U, 0x3db092713d51c0cfU, 0x3d0460cf3c977024U,
  0xbbf0eebe3c4ec697U, 0x3d051cbe3cc8328cU, 0x3cfbb74d3cfa6894U, 0x3c561735bbba6bf2U,
  0x3d86045339b42b19U, 0x3c77db3e391b148bU, 0x3c41cad53d27c1b5U, 0x3b80091cbd14f010U,
  0x3c77e63abd5ef832U, 0x3d2e08a23cae464dU, 0x3cdfe30b3d4d2852U, 0x3c9045d13cb4b977U,
  0xbc268383bb2a9876U, 0xbd05e0a3bc7dadedU, 0xbd85905f3b28c3ebU, 0x3d3206473bf42108U,
  0xba942e99bb65f08dU, 0x3d30591fbcb06a35U, 0xbb862b263bb9fffcU, 0xbc15bd3b3ad140eaU,
  0xbc499c3f3d508720U, 0xbd1311343b91ea00U, 0xbca00ded3b2affe2U, 0xbdfa195ebb69b787U,
  0xbe153dbebddab9dfU, 0xbd29b112be2c432cU, 0x3c4ddc36bd02d74bU, 0xbd5d6982bd251200U,
  0xbc0b0791bd0f244dU, 0xbd9c7144bdcdf349U, 0xbdff6ac6bdba97beU, 0xbe145aa1be0aeef9U,
  0xbd4fba45be064276U, 0xbc5b1dd13b61b604U, 0x3e2c9bfa3c99c813U, 0xbd0653793b84b9a2U,
  0xbd4340463d0c2641U, 0xbb1664d73c38e78bU, 0xbd2779643ab6bce6U, 0xbd6a45b2bdb50677U,
  0xbda55c88bdec94a1U, 0x3c756a3e3d46ac34U, 0x3d82abe73de21abaU, 0x3da1a8413cf6dc34U,
  0x3de4af063d954046U, 0xbd36b87e3cae7339U, 0xbd845a80bd2a56dbU, 0x3dcf550ebd2bb119U,
  0x3d2e17183d3f3d64U, 0x3a3070d23ce3e166U, 0x3db2f4f53d21429bU, 0x3ca5e2883d5e42e1U,
  0xbd3d96ccbc43ee90U, 0x3d131753bd8147beU, 0x3cf2312c3ded71b0U, 0x3cdb16cf3d4d298cU,
  0x3d5968543d6ccf41U, 0xbb8bd32a3d19362fU, 0x3dd7583e3d9a52eeU, 0x3cad5b453c9cd1b9U,
  0x3d308e8e3ce1db63U, 0xbcc3122c3d7e4dc2U, 0xbb82a9783c3f21edU, 0xbd222372bd1f8eecU,
  0x3d6dc0dabd165c27U, 0x3dd511ef3dd1e939U, 0x3dec321e3e1c5d4bU, 0x3c0758e63d2e128dU,
  0xbc5233d1bd0562dfU, 0xbc254974bc3128aaU, 0xbd05d5df3b8bd2f7U, 0x3d97d177bce10737U,
  0x3d9ca5193cd19d01U, 0x3d358fa33ca41004U, 0xbb1bf3d63cca2103U, 0xbd7ebe28bd103104U,
  0xbd9defcebe22f9a5U, 0xbd6f4435bd01b613U, 0xbcd107dabd1202b2U, 0x3cb58c7e3b033e45U,
  0xbc33fe453c69eb88U, 0xbc04f0c6b9a58db1U, 0x3d9ae3ffbd869003U, 0xbda7d5ea3df7fa62U,
  0xbcadac66bbb9fa48U, 0x3d2a2c82bd279894U, 0x3c9782553d6c777cU, 0xbbdddf4bbbd9714eU,
  0x3dae4c4f3d0f580fU, 0x3d5497633cbc946aU, 0xbe0b8779bc81bc5dU, 0xbe3975b3bc694f86U,
  0xbd6508b7bd986841U, 0x3d82c18bbcdf585fU, 0x3db144c33b92d10bU, 0xbcc6032dbbb19adaU,
  0xbb2be9823b3dabfeU, 0x3d856a12bd6dd520U, 0xbd882b25be2dfaccU, 0xbc2c84abbe219ecaU,
  0x3b0b58583d771a16U, 0xbcb639be3b5a0a54U, 0x3d0bcff73c338764U, 0xbd587763bdf3ba20U,
  0xbce968e2bdd837d2U, 0x3d18cc243ce080dcU, 0x3d8744f1bce35981U, 0x3bf06199bd111859U,
  0xbdc0e65b3d269801U, 0xbe0135f9be60e705U, 0xbe0a01bcbc35e4b0U, 0x3d27b16f3d85b7cfU,
  0xbbee986dbe17b96dU, 0x3d4fd7e0bd84c2a0U, 0xbdec1a29bdaf5c73U, 0xbdceb56cbe181d8cU,
  0xbdd1ce08bd2e0dc0U, 0x3d7214f43d819c0eU, 0x3e0f683f3dd1461aU, 0xbc1231413e7aea28U,
  0x3d8e62fdbc208e64U, 0x3d704d713dcb0aa9U, 0xbde515373cb56cd7U, 0x3df2eafe3d651e06U,
  0x3e534fb33e230cfeU, 0x3e2d264c3db481d9U, 0x3deb6fcb3c3886c8U, 0x3d5d57bb3db86bf6U,
  0x3e2828723e489229U, 0x3e1a877d3de4b2f3U, 0x3e22d11c3c8c8e5fU, 0x3de2a46e3db831b8U,
  0x3de55b523e4d1f77U, 0x3d387c723d94c8a0U, 0x3e5903933df25fe5U, 0x3daff31c3e0e23edU,
  0x3d5adf233d943d5bU, 0xbdff5ed8bd8737faU, 0x3e38ac613daeab9fU, 0x39feb3dabc22b814U,
  0x3d2571eebd58aabaU, 0x3e1128ac3dd4d93dU, 0x3d546845bc856d4aU, 0x3c0065523cd832c8U,
  0x3dcbdda9bc1fbe9eU, 0x3da12cfa3d791d3cU, 0xbb94338b3bcd3a7aU, 0x3dee9712bd2788f5U,
  0xbdacaf15bd8a6ec0U, 0x3d77f33e3d99ab98U, 0xbcda69f2bd742c5aU, 0x3d392adb3e495b72U,
  0xbcd69a493c2169ecU, 0x3d9087813ce7afc7U, 0xbd803c64be0d6664U, 0xbe737763be446491U,
  0xbdec303dbcfce5c0U, 0x3d0ebc683d7ee7abU, 0x3c4459ff3c543de5U, 0xbe0661fe3af6f65eU,
  0xbea805f5be21a276U, 0xbe89485bbdbb4c4eU, 0xbe7da4adbe80611fU, 0xba47e73dbddb2a96U,
  0xbba7ae8b3c825274U, 0xbcd4c0203b5f5769U, 0xbe044855bd6b10c3U, 0x3de4fcf13ddc0b59U,
  0x3db909cd3d60703bU, 0xbd09ea9c3d875afcU, 0x3d71c73e3ce74767U, 0xbd9451403db69d71U,
  0x3d8e3631bcbde8eaU, 0x3d84aa21bc7cd3d1U, 0x3d34cc353ce90927U, 0x3cb21dd63d310d89U,
  0xbb6d18c3bd133ce0U, 0xbdb8e420be38b887U, 0x3d428fcc3ba58e4fU, 0x3cc87ff03dae42dcU,
  0xbc1c03be3c44f181U, 0xbc1abfe03d581cb9U, 0xbcda8b6e3d7ece0aU, 0xbdd950fb3d11862dU,
  0x3dd53007be326ad3U, 0xbd8b0f413c0e124cU, 0x3cc61728bd8b6172U, 0xbc3d57213c33cf87U,
  0xbb16db18bccb91caU, 0x3bfc0a123d5b877cU, 0xbe9efba7bc49fad1U, 0xbdd7e0543ccc08b9U,
  0xbe83a228bd4d64faU, 0xbe4742c1bdda8cbcU, 0xbd6f8be1be6911ebU, 0x3d9ef6963b67483bU,
  0xbced6b7dba02dbb1U, 0xbdc5f7eebe817129U, 0xbe80eb86be96a10bU, 0xbe87afc0be81b672U,
  0xbe87701cbe46f633U, 0xbde30426be75b100U, 0xbc85dff63d93b171U, 0x3e3a148ebcdeca47U,
  0xbe070cabbdf16b2dU, 0xbe380176be30330dU, 0xbda16f50bd3c7183U, 0xbdacd96bbcda1dc6U,
  0xbdf25c6bbdd43bc7U, 0xbe497bbabe284ecaU, 0xbda1ab8fbcd1ed59U, 0xbb66eb743dea93b6U,
  0x39e6b4b8bceef24aU, 0x3dadeaf63d3dd8b9U, 0xbda37b22bca62f4bU, 0xbdb1ffd2bdd4265fU,
  0x3e34103abe76664eU, 0x3e1c065ebc8bb48dU, 0x3ca6135f3d44be04U, 0x3d95bf193d29b741U,
  0xbcda23683d92b2b7U, 0xbd89ec4dbcd9853aU, 0xbde6bbeebe0601d1U, 0x3d2d04e43daf1678U,
  0xbc19bf123d340340U, 0x3d18f2a13da28543U, 0x3cc5d9a03d587362U, 0x3df188793d63f6c4U,
  0xbd107d773c01f6aeU, 0xbd5aff79bd27ae2bU, 0x3c5df85e3e039f25U, 0xbcc97a7e3c1cbe47U,
  0x3ceeb5a7bca3686eU, 0x3d2293febc6efbc8U, 0x3df4f2ef3da16720U, 0x3e0315d43db6cac1U,
  0xbde25c703dfa16c6U, 0xbc201fa6bd4a9a70U, 0x3bd97e76bd05b7a9U, 0x3cd4bbabbc861da6U,
  0x3dfdacd83ccd73bdU, 0x3da67b5a3ceb336dU, 0x3e4b79c73d9f9a11U, 0xbdc53c78bd17c535U,
  0xbeee39debe9709ebU, 0xbf0fb6cdbf49f370U, 0xbee73910be8d33ecU, 0xbed31193becc0081U,
  0xbe5ac47bbe590b97U, 0xbb83fb78bc16bdd2U, 0xbc3152a2bbc20d6cU, 0x3dfd06fc3d938498U,
  0xbca80b653d645c45U, 0x3c9e3bd93d7a0212U, 0xbd79af433ca8bd6bU, 0x3c00ae7c3dee2c0fU,
  0xbe4020183d080da0U, 0x3dc77be63c9ffac8U, 0xbbe25e94bcfb63cfU, 0xbdccf36bbca095bdU,
  0xbd662920bd39fa90U, 0x3dbc82a8be2045bdU, 0x3d1964e8bdee2376U, 0xbda15d28bcef88b6U,
  0x3c7c802ebd978ca8U, 0x3d32f6553c2cc194U, 0x3d15970e3d572c3bU, 0xbd6f09803c36bcdcU,
  0x3afc478c3cbddfd0U, 0x3cdd48623e26de43U, 0x3d59212dbdc68372U, 0x3d339cc4bd6ad1e2U,
  0xbc8dafe13df58e1dU, 0xbc6e16013c6ba917U, 0xbcdbbac53d09c63fU, 0x3cf8306abe6e162fU,
  0xbdbcdede3c9389eaU, 0xbdf2da343c3345fbU, 0xbd9fb004be6f719cU, 0xbae183a03d415049U,
  0x3cfade593dd90951U, 0xbda534fcbe19f9edU, 0x3d9f2165be42d7fcU, 0xbe23aeacbe5f67fcU,
  0xbe38b097be5f14c8U, 0x3ce9ffccbe07a634U, 0xbd7794223d0772d4U, 0xbd3480793d5dc84dU,
  0x3bfd3e213e3321a7U, 0xbdaa0244bd06fb1aU, 0xbda00a4dbd884a58U, 0xbe13a932bd3bf395U,
  0xbd83398e3b93f2b4U, 0x3c644fe8bdd6435cU, 0x3df17547bdd2462fU, 0x3c8d96703dc85756U,
  0xbda1ce9f3c6bb1a2U, 0x3d8f75713d01ecc8U, 0xbcb738243d28c7baU, 0x3cdb27bebe256c18U,
  0x3da507a0bd9ab3daU, 0x3e1cf7343e866d42U, 0x3d13c2763d635b19U, 0x3dc9a9173da59c3eU,
  0xbd22e1553df9c194U, 0x3c616c923e16a25dU, 0xbdb572d1bc738073U, 0x3e8a07233e03dc69U,
  0xbd442ec63c214f8bU, 0x3db7d8ecbd91845eU, 0x3decd0d13e08b428U, 0x3e1cf97c3d84c55fU,
  0x3daf68233dde52ccU, 0x3e1a6fb23da37cd0U, 0x3d9f96633e0f4748U, 0xbd6af9573d1b7deeU,
  0x3e30fa32bc6f58ccU, 0x3d8decbb3ceaaf49U, 0x3d85fa3c3da8dbf0U, 0x3e43ffcf3cc63242U,
  0x3dbe28363e6247ceU, 0xbd0ae3013d30809eU, 0x3b5a82a8bac275caU, 0xbd1b32623d113105U,
  0x3b7d61f7bda68877U, 0x3dae98603e04a0f8U, 0x3d7f57913e44e2d0U, 0xbd8c12213d884aecU,
  0xbe645c3fbcc4eccfU, 0xbf04eb3abdf10b21U, 0xbeaf49bcbdfe359aU, 0xbeb47474beae58bcU,
  0xbd125110be4d7661U, 0xbc15360bbbd739bfU, 0xbb2020ce3bac09e7U, 0x3d0e64a8bb36c93dU,
  0x3e32d40c3e4649cfU, 0xbe1ac9c63cb04939U, 0xbdd7a2823e943838U, 0x3d32e594bd5ab2c9U,
  0xb8a4cf873dbd0644U, 0xbdf942abbe025941U, 0x3da4caee3e2027ddU, 0x3ddeb6943a4d1cbfU,
  0xbd085bb2bdc10636U, 0xbb5b22c2be27f21dU, 0xbe0329e4bdf2a021U, 0xbdccd2243d801b7dU,
  0x3e1dd276bccd9615U, 0xbd1cbcdebd15b695U, 0x3cade8aebc8f2ec2U, 0xbd43fea5bc904625U,
  0x3d12d78a3d5b89fdU, 0x3d2fd24cbe305dd9U, 0xbd4fceb43d5cbe4bU, 0xbd9f4e6cbcb485c0U,
  0xbd47297fbb2eda8bU, 0x3d3c1ac93cbd57faU, 0x3cf7601dbd0bd09eU, 0xbe75d00c3e0ac97bU,
  0x3ce3a5b03e1cd21bU, 0xbe07b64bbd94cac2U, 0xbd2767dcbe63417cU, 0xbdddfa2e39362e10U,
  0xbc27a0503dda2c6dU, 0x3df810fa3d384d8fU, 0xbe590225be99878bU, 0xbecffc7e3da35745U,
  0xbebc50b8beca99b5U, 0xbe7f88a8be7271dcU, 0x3cbd697ebe327d7eU, 0xbcf550963ddd8a2cU,
  0x3b3c96043c132e52U, 0xbe42452dbddb22feU, 0xbec892c4bee50276U, 0xbe14eeccbe669176U,
  0xbd642261be87a33bU, 0xbd3dc768bc77a782U, 0xbe170b91bde58786U, 0x3cb52ae3bd7ec082U,
  0xbce2ad2a3d44ad57U, 0xbd07c6c2be3e7637U, 0xbc6d57633d42c221U, 0x3d70e6313cba758cU,
  0xbe1ed257be05cdd3U, 0xbd52bf40be0aa02dU, 0x3df5a0b53e21c695U, 0x3d1336173d1f7c76U,
  0x3dd38a9b3d634bc0U, 0x3c064f733e122ed3U, 0xbe3dc395bccbbc62U, 0x3dd2b1f4be0c0e30U,
  0x3d4910cf3cae0a70U, 0xbd4462043d19cc09U, 0x3dbc02343db8f6e2U, 0xbddc273b3e696a00U,
  0x3d0e35623e37ca95U, 0xbd0bc57bbdc81366U, 0xbd32b6233d48226fU, 0x3d00496a3d0dbdc5U,
  0x3dd2512fbc0ac2dcU, 0x3c99cf443d53b712U, 0xbd590280bdb13523U, 0x3e4c6b923da9d127U,
  0x3d0dc98e3db46d36U, 0x3d9dbc333d2627cfU, 0xbd188ea53d6bac0bU, 0x3d3b5ca33c8bf9bbU,
  0x3ce5f3efbdb9d443U, 0x3ddd7db6be05489eU, 0x3e76ba123de09aecU, 0x3e86c7fe3d4f7e78U,
  0xbcf0b9eabe1904fcU, 0xbdc07406be8bf32cU, 0xbea0d27bbed17b3dU, 0xbecf4157be23d537U,
  0xbe624325be0d25c2U, 0xbda59accbd9adddeU, 0xbca787e73ddc8d49U, 0xbd5cd9843b97c4edU,
  0x3e1c805fbe26cc65U, 0x3b0455693e41d9d3U, 0x3db33b44bc88ba62U, 0x3cb162b6bd9440acU,
  0x3dd378a73ca9ca87U, 0xbcf0e48bbc968d97U, 0xbcfbe490bd78400cU, 0x3d711ff53b86c47aU,
  0xbd071fb23d39401fU, 0xbd7ea5f4bce2a4b6U, 0xbe0098c53cb73d35U, 0x3cfde18fbdc99ae9U,
  0x3e08dee53d5af2d7U, 0x3ceeb7a9bbad8e65U, 0x3d2d44a0bd61b7b2U, 0x3a945d02bd872eb6U,
  0x3c4b5693bcdf9c34U, 0xbe1542c1bdce582bU, 0x3e2e25dabd187b2cU, 0xbd2191083d1a5d8dU,
  0x3c97f990ba81c7a2U, 0xbb960c043cf93d77U, 0xbd6a4bb8bd3949a1U, 0x3d3bfe1fbd13c1f0U,
  0x3d2b9e6cbe9c1ef7U, 0xbd1ec84bbdf27210U, 0xbde00901be1884ceU, 0xbe206b65bddcd3abU,
  0x3bfd4108bdbb33d6U, 0x3d04a0dc3dc0a471U, 0xbe038250bd26df3eU, 0xbe28b2a83d1050c3U,
  0xbe9408afbe306cccU, 0xbe28cdb8be964201U, 0xbe3f9050be4764aeU, 0xbbda0b57bd98bbfaU,
  0x3ca62153bc4d332eU, 0xbdf148643e0b9362U, 0xbdcf4d0abdcbbf98U, 0xbd3197d3bd9e8fc1U,
  0xbcde7f3f3c0a0aa3U, 0xbd0a3defbc9ed2eaU, 0xbc9c92f5bcf50c44U, 0x3da813ffbe2dabf3U,
  0x3e285e13bbe20a61U, 0x3d6a215f3df04b85U, 0x3d8a09ca3dbf8971U, 0x3db592713d5465bcU,
  0xbd9eec79bc1d872aU, 0xbde6192fbcc1306aU, 0x3b82efd03e035422U, 0x3df0cbd33e1cb8b3U,
  0x3d933d213d630632U, 0x3e02ad4d3dec7594U, 0xbc3ed6813d07da50U, 0xbd926765bd537cadU,
  0x3e26a87ebd567d5bU, 0x3e1bbb8abcab971aU, 0x3d915b873d76abfbU, 0x3dc7a5243d8cf735U,
  0x3ccde0563caa2748U, 0xbca7ed873d136aacU, 0xbc17bf1dbcdbeb87U, 0x3db3eeb63d2ba3deU,
  0x3d21cc2d3e339134U, 0x3c8575bdbb98c93aU, 0xbcf23f35bbb351a9U, 0x3c844b883af37314U,
  0x3db43f093c5013faU, 0x3e5478533db41704U, 0xbda3eb593e07f854U, 0xbd9d2a0cbdac53a3U,
  0xbcb9af4cbc9693a7U, 0xbdadc694bccdf2b2U, 0xbcf5da893d2b49a7U, 0x3d9fdfe23dd2dd45U,
  0xbcad184b3e058139U, 0xbe005740bdf777c1U, 0xbea195f0be8e6fc2U, 0xbec86b8dbe65a066U,
  0xbeb3c54abee9aa81U, 0xbe700d11beddc12dU, 0x3c51fe09bd315ca8U, 0xbc4c6ed43c12e600U,
  0x3bbd5a2fbd81185aU, 0x3da5cdc33da9dc52U, 0x3cf8c295bd44e4c5U, 0xbd9385d1be115d2cU,
  0x3cc905e83cfb0b6cU, 0x3d3e41783c928203U, 0x3cb6d106bce16766U, 0x3c8a8dccbca96a2aU,
  0xbdbf7074bacc4dd0U, 0xbdc60275bde3e26dU, 0xbcb75116be0dfa44U, 0xbc43e865be1dbd5fU,
  0x3dbb24233d7145d4U, 0x3d0775d43c5fb4c9U, 0xbd2992c63d416899U, 0xbe1ec2eebdae51a7U,
  0xbf08672abee393daU, 0xbe91e73ebe42df2dU, 0x3dede371ba0976c4U, 0xbca7c816bd569747U,
  0x3e004a8f3de4f08bU, 0xbdbf98303da75f6cU, 0xbe5edfefbea88d6fU, 0xbe84a172be90cb28U,
  0xbc78e2d3bdeda9f2U, 0x3c5f4468be2833ffU, 0x3d5d5bf13df8e0ddU, 0xbe99e3ccbdad4c31U,
  0xbe2b76cbbe121367U, 0x3d1469a7bd471658U, 0xbc2c7f39be3bb208U, 0xbd1abde13d7288a0U,
  0xbb42f377bccd3501U, 0x3e60cbe23e68cd9fU, 0x3e365f663e70321eU, 0x3cc7e79d3d7456f4U,
  0x3e13436dbcc2ecaaU, 0x3edfe4b13eb4b46cU, 0x3e3687d13c8744b1U, 0x3f00a0573f04a5e3U,
  0x3ea5a17c3ede1d52U, 0x3e466b143e12f212U, 0x3ea530973eca3164U, 0x3ee0fc853e83cb09U,
  0x3dfd184a3e9333b6U, 0x3e617d003e0dc080U, 0x3eb0ff263e66282dU, 0x3dcb6c2d3e952f45U,
  0x3e3db9e03ddf4e94U, 0x3ea094bc3eb04005U, 0x3e877e883f01197fU, 0xbc8952dc3dc21075U,
  0x3e4a4bd03d8660a6U, 0x3e5d6f2b3e6f2f5cU, 0x3e6d06cd3e47fddbU, 0x3e4a40183e2e9babU,
  0x3f08e4e33e49f1d0U, 0x3cd2233b3de3c6f8U, 0xbc4074ab3ca5bae8U, 0x3d5fc2d7bc9f1899U,
  0x3c693ec239e30b80U, 0x3d3c7a083d514643U, 0x3e2b92ed3c540901U, 0x3d143ea73e8db483U,
  0xbaa46ec23d9ea58eU, 0xbdf35b95bddbee54U, 0xbe809226bdc84ab4U, 0xbb93a0c13d08092fU,
  0x3e1ff3a43e2cbdc8U, 0x3e1a82293e88a62dU, 0xbd3f3b4f3d4e61d0U, 0xbe32e0c5bd9df6b1U,
  0xbee82453be59f5c3U, 0xbed7e7b6bebe56e1U, 0xbe8fd713bec17e79U, 0xbd31b226be80b507U,
  0x3cff3e8c3dc12a6fU, 0x3b2b8fff3bd15a56U, 0xbd9d761b3d0af826U, 0xbccfb76cb73d9f60U,
  0xbd9142f5bc34e323U, 0x3cb12c4dbd9403ecU, 0x3cf9a38a3cf3be0aU, 0x3c52af903c19088cU,
  0xbcbecd56bc3bd083U, 0x3dbee7b9be198444U, 0x3d28e0ab3e53c7e0U, 0x3dfb2382bd87c9f3U,
  0xbdd5f962bdcb4cfaU, 0x3d5b80d8bca0320bU, 0xbe0488073c2fd3c1U, 0x3d0adc0ebddc778eU,
  0xbccc8c72bbdc146cU, 0xbd9fa2a53d90fabbU, 0xbdc114fcbd9ccd78U, 0xbe2ebb7abd1f72ebU,
  0xbc07da56be4142f7U, 0x3df565efbbed147cU, 0x3d4cb82e3c0d5cf7U, 0x3da8b65d3c09c4ffU,
  0x3d82335a3ce06545U, 0x3bb45b303cfb3208U, 0xbe21609ebd175b06U, 0x3e0e920cbdcfc43dU,
  0xbc82550a3e01cd3bU, 0x3d44c8553d58c602U, 0xbc9d8041bc3585c5U, 0xbd77e33fbd08dab1U,
  0x3da17cccbc7e9231U, 0x3d332043be7cd96bU, 0x3d8884543d2ed883U, 0xbcb39a84bc2b5b60U,
  0xbe04bdffbc78b933U, 0x3cff8856bd034f5dU, 0x3d085f283cc6dc1aU, 0xbe92b77dbb9dd7bbU,
  0x3c977d23be248669U, 0xbe7d602fbcc3eef9U, 0xbe67d247be399f48U, 0xbe83409dbe85e745U,
  0x3a8af919bd227cbaU, 0xbc70f930bd04ee2bU, 0xbdfcb8403c83125eU, 0xbe316815bdf70545U,
  0xbbcf18e0bdd09223U, 0xbdbbf64ebe01d440U, 0xbd16cf8fbd725845U, 0x3cf0e00dbdaae2b3U,
  0x3c8841b3bdaf6b2aU, 0x3d7a41b73bba3c57U, 0x3dd5e8b63dbdd676U, 0x3ddc15a23daf4f9dU,
  0x3be1beb03d4a59baU, 0xbda1dd47bcb08de9U, 0xbdee5dd1bd7e9cd2U, 0x3e9e0efe3df85175U,
  0x3de512413e20dfa1U, 0x3dabe1b13d94df50U, 0x3e05a06b3ddc893aU, 0xbdab1ae13cb665baU,
  0xbb049ca9bd8c54ebU, 0x3d9018dc3b1c995aU, 0x3de0b72abd274dd6U, 0x3dcf06263c6f0f07U,
  0x3e1048b33db16fefU, 0x3dbc645a3dc3ad8eU, 0xbbeabeb4bbbc4da5U, 0xbbcb3aaabd376cd1U,
  0x3dbb7d5abce9eff2U, 0x3cf6ac403d78becbU, 0x3d34c661bd26cda0U, 0x3cee365f3d26d562U,
  0x3cca31cbbce8597fU, 0xbc3530033c248453U, 0x3e0776a13bfa4cecU, 0x3d12aced3cd9d777U,
  0xbcf6930e3c40027bU, 0xbc03f50c3d835d39U, 0xbcddfd06bc05c261U, 0x3de212b73df2c440U,
  0x3e0cda713dc2afc3U, 0xbdf5d56f3e81c13aU, 0xbe90ec7cbe44bed3U, 0xbe9b3be8be866576U,
  0xbdcbaaf4be596442U, 0xbe59e6c93c0be4acU, 0xbd8b20edbe6a7e38U, 0x3dab1cdbbd43cd0dU,
  0xbd2f18cdbd3eca9dU, 0x3e59dba8bcf4a098U, 0x3d5216babe8554bfU, 0xbd656fb33cfb3431U,
  0x3e64a6d8bc8a07f2U, 0xbe297458bdbc2bd6U, 0xbd8cbd2abd7472c3U, 0x3cb51bcabd24cb54U,
  0xbe2032013d01316eU, 0x3e59bf673e652e37U, 0xbe07ac243e424ce2U, 0xbe015fb1bdb85d9aU,
  0xbdac4bd6bdacb06fU, 0x3e8533c6bd8b290aU, 0x3d5054963e4c267aU, 0x3e4981a33dfaa539U,
  0x3ba35af03de7e58aU, 0xbe08f3b5bde34bbcU, 0xbeb70f5ebe43ad3aU, 0x3d491c6dbda6331aU,
  0x3e7858983e537303U, 0x3e3f7e523ddabf81U, 0x3c8eff433d8a21e2U, 0xbd9894da3c8152f8U,
  0xbe39cd38be1d9d39U, 0xbe57b9babdf3b34aU, 0x3d12f36a3d7d2dc0U, 0xba67592a3df1fca2U,
  0x3c5b850e3c2f54c0U, 0x3c7c26cf3e521e60U, 0xbe811b76bdcb6013U, 0xbf04ec32bed7367aU,
  0x3e152af6bdf0526bU, 0x3de756ac3ddf6e04U, 0x3e2941453e53fbf8U, 0x3e533bf83e28c8ceU,
  0x3daa70d43e554478U, 0xbe507f8abe146598U, 0xbd74aaa8bec8a2adU, 0x3e3e933a3d8fe93fU,
  0x3adbaa943df9038dU, 0xbd2c2573bd5a35aeU, 0x3e1277a23e04fca3U, 0xbda9ac7d3e1a3726U,
  0xbb4777a8bcaab53fU, 0x3e78e0083dfc2c8cU, 0xbde223aebd77a3f9U, 0xbd77af933ca1bfd4U,
  0x3e1bc27d3df68df7U, 0x3d9911ee3d607dcbU, 0xbdf16fbabd93c1e6U, 0xbe59d98cbd7eb2efU,
  0x3d2f49623d764441U, 0xbb68bcafbc4c67c1U, 0x3e8938303e2f016aU, 0x3e5d659e3e7f423aU,
  0xbe3c017d3d779465U, 0xbe3f1b3cbe897b9fU, 0x3e9765d1bdbdc40eU, 0x3e234d853d674eb5U,
  0x3e15412d3e4f3e29U, 0x3dc211fb3e4500c0U, 0xbdf7cd383e0933aeU, 0xbdabb57dbe8469abU,
  0xbe2201c4bdc00bb6U, 0x3e504902bd18bb70U, 0x3dc73cb03e5ad38eU, 0x3d8b3bf13dc65b41U,
  0x3da5e1b63e1c1420U, 0xbe03d282bdef0c19U, 0xbe5bab31bea2fe0bU, 0xbd23d8f8bdd4b008U,
  0x3c212132bd469a93U, 0x3dd34aa03da1d380U, 0x3ce4a9ee3d51f9f1U, 0xbdbdda2ebcb3ad4eU,
  0xbe1e8d28bdec3d22U, 0xbda532e93dc7e220U, 0x3cd05d7b3d47f2d2U, 0x3db7963e3d6f4631U,
  0x3bc5623a3ddd03c1U, 0xbd6ecfe33d20c37cU, 0xbd7bb09eba599ce4U, 0xbdd8d2a0bca90194U,
  0xbc97a1b8bd92de26U, 0x3b96a649bca245d2U, 0xbc0fffe83ba1bd0fU, 0x3d80d0a63ceae423U,
  0x3a3db743bdbb644fU, 0xbc5c4ab33a9456c9U, 0x3a90b334bd12f269U, 0x3d9417ccbc7698ecU,
  0x3cd4c1623d4982d1U, 0x3e1366873d461ddcU, 0x3dcbe7373da0ba52U, 0x3d36d9903d6dca23U,
  0xbe4d37cdbda110f4U, 0x3d678164bd08350cU, 0x3d4d7cd63dd2a34fU, 0x3dbfa6cb3d14b7ccU,
  0x3d9384093d93bab8U, 0x3db973db3da49fcfU, 0xbc028bd13dbbd706U, 0xbe1c53de3d806541U,
  0x3e11607e3d6ab70bU, 0xbb014e5a3d24d137U, 0x3d808a113d7d4735U, 0x3dac75c73e061ce0U,
  0x3d2db65f3d0c9eb6U, 0x3cb1f0b73d94b05aU, 0x3d35b62abe2e27b2U, 0xbb8990653e1808cbU,
  0xbd379698bd61f845U, 0x3d03457d3bc2ca97U, 0x3d264690bc91a214U, 0x3c8363943d23ac8bU,
  0x3b2b44df3c6ad8cdU, 0x3d1e53cd3cf1e386U, 0xbdd53b69be705a4fU, 0xbe0b5480be3e5fb5U,
  0x3c7d13d53c98cdf4U, 0xbd9b92c8bd535681U, 0xbe92368cbe1965acU, 0xbc2beef0bd94997dU,
  0xbe82cc6ebc2f31b8U, 0xbe4443aebe4a4cc7U, 0x3b130af0bdbb4131U, 0xbd4f85ad3be6c2f4U,
  0xbe33cd0abd8bb31eU, 0xbe0c98e7be437247U, 0x3ce0614c3e24e1b1U, 0xbe85ba42be43b3f6U,
  0xbe4f9102be8353a2U, 0xbc3dc065bd7c8a6dU, 0xbcb623d0bc889b83U, 0x3dfc02f8bd2a3bfaU,
  0x3e41f43bbd9f3f5bU, 0x3cb34c163d3f8e72U, 0xbdcdbec5bd80be51U, 0xbd04e49239cec578U,
  0x3d580ccfbd2c6ce5U, 0x3d836ba83c022a10U, 0xbe17559b3cacd966U, 0x3d34aba13d49a925U,
  0x3d83de6a3d8a7867U, 0x3d0ff9ba3c765ae3U, 0x3d679ad83cd370d2U, 0x3d34f6fc3d1af7edU,
  0x3cb7699d3d662c28U, 0xbc9d6c5a3d36c5a3U, 0x3cfd56853da5aaf3U, 0x3db0d6223d4e0ad2U,
  0x3d15a4c23d2976d1U, 0x3b9ee67b3d0b6410U, 0xbdc1de52bba9d70bU, 0x3b8a1216bd2105aaU,
  0x3ad842f53de9c357U, 0x3dbfebbc3d9e7e87U, 0x3dc0b3b83d9d8c14U, 0xbcdd5c273c6da75aU,
  0xbc60e4dd3c1f6933U, 0xbe18c602bdd4cc94U, 0xbd1025bdbd2ca59bU, 0x3e4d67b73ce68b95U,
  0x3e948bdf3e9e4b63U, 0x3dd5bfa23e5519e9U, 0xbc99919e3d163019U, 0x3cc09a19bb9bc36eU,
  0xbcc7dc1c3ba1b831U, 0x3b665f4cbcdd015fU, 0x3a8ab429bb227015U, 0xbb94badabc32c891U,
  0xbca593f1bdb9b047U, 0xbcda6de7bb1edfe9U, 0xbcf2b7183d6225e6U, 0xbcc8a0febc55144bU,
  0x3c2d822dbb89ea72U, 0xbe32ebadbd43bdbfU, 0xbd76be163d3f1ae3U, 0xbd9e61e1be0812a3U,
  0xbc98c5f33c21f310U, 0xbb2cb2df3cc58f36U, 0xbce46bad3a5093bcU, 0xbe307c6fbcf9400cU,
  0xbe47880cbe8b7862U, 0xbe05e534be60487fU, 0x3d62f1c3bd94593aU, 0x3d7f9bf1bd018a4cU,
  0xb905437fbbefcfe4U, 0xbdadc57cbd0c089fU, 0xbed8568abe869718U, 0xbefdc556bf21f180U,
  0x3df7d7fd3d8c05faU, 0x3d4aae653d882b3aU, 0xbd9340853d1faba4U, 0xbd5ec2c2bc1e9be7U,
  0xbe986f17be7e6535U, 0xbf17e70ebedf7988U, 0x3c72794ebea44b8bU, 0x3d41a04c3cccda6fU,
  0x3d8ea36d3daf0406U, 0xbcdb8572bd3f0513U, 0xbd58159c3c65fffdU, 0xbe6253babdae6bf2U,
  0xbeb7e2adbefe9a94U, 0xbe2473a4be24bc4fU, 0xbdb52981bd681215U, 0xbd8dd9f0bd93e5a2U,
  0xbdb16c27bc3a4b2bU, 0x3e08ba943e0ffa11U, 0xbedc57b4be2fea17U, 0xbe1e6fb8bea4f682U,
  0xbdd6284cbdae6ea6U, 0xbe01aa82bde689d4U, 0xba91dc11bcd9f2f4U, 0x3ad67fbbbd99c92bU,
  0xbe454d6abd94a1d0U, 0xbed5a806bec7a477U, 0xbe1e9856be96edb7U, 0xbd81798bbc8dc70bU,
  0x3c382ce83c29d1e5U, 0xbda8b29fbc84710cU, 0xbe4a27eebe30f8d6U, 0xbebee83cbed54159U,
  0xbe5407a3bef0e57dU, 0x3d8d1980bc668a3bU, 0x3d8df078bcfc1432U, 0xb998f11d3cb966f3U,
  0xbe90427dbd53ca66U, 0xbeb6de85beb21f8dU, 0xbee16fffbed4a411U, 0x3daf0ca5be034542U,
  0xbb6fc5f33d7b2850U, 0x3d8546083d03244aU, 0x3ab8d120bc33c464U, 0xbe239f5dbe39e81eU,
  0xbed3659ebed463a3U, 0x3d045bbbbe4d8187U, 0x3bf30d823c2b781aU, 0xbd80b4b0bb42548fU,
  0xbbaa90023c7d02e0U, 0xbdf59d7fbd4efd4bU, 0xbe96366ebdb882cdU, 0xbe4857f4be11e5b2U,
  0xbd073421be524143U, 0xbbd3cf683d422d5aU, 0xbbace54cbd62ba83U, 0xb68b00c03c37b11eU,
  0xbdb6164cbcb31e5bU, 0xbe18b475bdda6d63U, 0xbe33dcd7bd9eba9fU, 0x3d299e86bda0afe7U,
  0x3c45d302bbabce4cU, 0xbc60a6f5bc975415U, 0xbc828787bb5b5145U, 0x3bdbd2dabcb1c132U,
  0xbcdec3ba3bc096eaU, 0xbc3de9923bdbc737U, 0x3c4f1a23bcdf41b4U, 0xbc2793a3badac4c0U,
  0x3b771fcdbbdc47dbU, 0xbd046dcabcb40eddU, 0x3cdde0bf3cf6d93dU, 0x3d7d5fce3e430352U,
  0x3c66708d3d44f468U, 0x3c48b8e9bbcd100bU, 0xbccb42afbb834003U, 0x3d89c8263c82dcb2U,
  0x3e61aa243df7e791U, 0x3efb579b3e8a4936U, 0x3d31bd2c3e37f9d2U, 0xbc38834fbdb56994U,
  0xbca9b79bbc98eccdU, 0x3ca0f87e3cd402deU, 0x3dc07ced3db7d1dfU, 0x3e19e91c3e2aff61U,
  0xbe0a54a1bd952d56U, 0xbe978c64be4ec5ddU, 0xba7b7a02be07e93aU, 0xbc4d76683bf7d211U,
  0x3d40286abdd96602U, 0x3d430c95bd183905U, 0xbed03af1be7488b3U, 0xbee343d3bebb1afdU,
  0xbe7684a4bf0357d9U, 0xbc761536bd7076f0U, 0xbbc3a2453c988094U, 0xbcc80d3c3c821f5fU,
  0xbdf798c1be12af0bU, 0xbec49586bea3e935U, 0xbec952a8bebeebf8U, 0xbbfe798dbd3f21dfU,
  0xbcfb5ff4bce1348bU, 0x3d92cccd3beed02fU, 0x3d3687803dade35aU, 0x3def8a893e361dc3U,
  0x3dc5f97a3d6ff332U, 0x3d14831f3d654988U, 0x3c5f45363d4635bcU, 0xbd6ad6d23c61777cU,
  0x3e8b2f9b3db1c59eU, 0x3ee40a463e9b4860U, 0x3e5013943ebf1039U, 0x3d495f093e3eef4eU,
  0xbd04e6c33cdc9977U, 0xbc9ba5de3b836143U, 0x3e057b0f3c85aac0U, 0x3f003c253ec27529U,
  0x3ea98fa73f13f6edU, 0x3d0062943e815949U, 0xbe56f901bdc090c4U, 0x3bfd7bc3bd7b2eb5U,
  0xbd20b7c73d44c4f4U, 0x3df821893dff87a6U, 0x3e4453ea3d10c485U, 0x3de0c9cdbb052ecbU,
  0xbe8f45a9be0d45aeU, 0xbd472302be86d748U, 0xbd028de9baabbaffU, 0x3e05b72d3d16264cU,
  0xbb9334c23df6e6d5U, 0xbe3ea9febe3bd09dU, 0xbe8a5f45bdf1614bU, 0xbe81e6e6be9bab21U,
  0xbc0826abbb0fb7afU, 0xbd87ba333be4300fU, 0x3a4f67a93894f569U, 0xbe40120a3cb62ff7U,
  0xbe9eb458be66fb7fU, 0xbdd68605be6630dfU, 0x3acdfb8cbd9aa8adU, 0x3c04301abcbd6cfaU,
  0x3cedb411bcf11237U, 0xbbec68893978a114U, 0xbdc5b94abdd1c7d9U, 0xbd71b4e6be364a21U,
  0xbcb9919dbd659042U, 0xbcc68e1dbc95d1a8U, 0x3b078f0dbc393feaU, 0x3e2cdac83ddb2efaU,
  0x3e30a1c83c8ca827U, 0x3d8027d43db2ead9U, 0x3e28b11e3e392e34U, 0xbea2a97cbd9bc8b3U,
  0x3b481757bddbc0b8U, 0x3e0a9f923e249a49U, 0x3d203a893dee9896U, 0x3e1548913e018e74U,
  0x3d91f87d3d8bc7a9U, 0x3d8520fd3de5f6ffU, 0xbe9e5336bdcdedd9U, 0x3ea448c33d5d3e08U,
  0x3dc258983ea5651cU, 0x3e6b8b163cf9ceebU, 0x3dcbf8363e333913U, 0x3dc188ab3d3f1642U,
  0x3c9909a63d4370d0U, 0x3e2286e0bea14274U, 0x3e50eb803e8a3153U, 0x3d892ce03c17a69fU,
  0xbd594cd9bd419033U, 0xbc0c6bbbbbd2bef9U, 0x3cef851ebaaba520U, 0xbeacd7bc3d867589U,
  0x3e6e6a453d588885U, 0xbdcc7455be1f88cdU, 0xbe8d4936be05e619U, 0xbdcfcb29bdf7a857U,
  0xbdda920ebd0c5703U, 0xbc746ae7bd5ec6f1U, 0xbc609cb1beb5ce74U, 0xbe0e82c53e80031dU,
  0xbe9a29c9beb6477fU, 0xbdde6be9bead3dfbU, 0x3d38db3f3da94566U, 0xbe24f3dfbe24560fU,
  0xbe1cc2e9be5250c3U, 0x3dbfc3e83d9bd2a2U, 0xbe3cd1e6bd1ef176U, 0xbe42449cbe935102U,
  0x3d1cd7a3bcc28cc7U, 0xbcf6e4653cd78d71U, 0xbe24e8d3be1cab91U, 0x3e9c7d08be270439U,
  0x3d9091953e17d710U, 0xbcbf04373d17e20eU, 0x3d059da1bdb88825U, 0x3bcd11babdca003eU,
  0x3b6fc9873c9c1f16U, 0xbd99d10d3da07df9U, 0x3e020a573e25f812U, 0xbd0563dc3e25dc5bU,
  0x3d69db59bd8021e8U, 0x3caa94d43c5349e3U, 0x3c39aa7abd33b310U, 0x3d68d0093d4f913bU,
  0x3e62eb30bd4123fbU, 0xbbae01fc3e61856bU, 0xbd5822debcece3c1U, 0xbe15a778bde3e679U,
  0xbd3cc243bc4c55faU, 0xbce85f573d5959a2U, 0x3c34cac2bc50f9eaU, 0x3ed0a97f3ec72062U,
  0x3e11f84f3de173f9U, 0xbdaeba0e3d39fd81U, 0xbcb28c91bd563beeU, 0x3d95a6cb3c281d3aU,
  0xbd9d6e30bd3f8e74U, 0x3e3fae743d9b1773U, 0xbdcde9bc3d9f9012U, 0x3da573bc3e0246c0U,
  0xbdb9adaebc551ca7U, 0xbcfbff5abde5c8acU, 0xbb7a03ed3d8b0cb4U, 0xbdbcc7aabe000f12U,
  0x3e0dbab53e28b309U, 0x3d9005153deb72f8U, 0xbd2f21313d09f0efU, 0x3c8662d03d32142dU,
  0x3d05b1d63cd0cd91U, 0xbdba443dbdc980dcU, 0x3c3b99a6bd954201U, 0x3ddd90373d428fa5U,
  0x3d517cab3be21eabU, 0x3cdbebf23df4e892U, 0x3c8f5c0cbc132f4eU, 0xbd89608d3e081b05U,
  0xbd759d1ebe4b1532U, 0x3e27f5a33d84e77dU, 0x3d696e483dcf4854U, 0x3da4e8173df993d7U,
  0x3e130b603c686f74U, 0x3d1506d03d8c7311U, 0xbe601cd4bcb1b63dU, 0x3e015839be459c5cU,
  0x3dbf659b3dedf73fU, 0x3d8c142d3c2fd7ecU, 0x3d8f94173d85e8bfU, 0x3dd79d753dd51f03U,
  0x3d5b3e293db69d28U, 0xbe92d2c03dc88848U, 0x3de0c1bf3e0646a8U, 0xbcbafa283cb4ef30U,
  0x3d99d4e73d0c7b3fU, 0x3d8550bf3db0a969U, 0x3dbc491a3d81e3cfU, 0xbbdbd7003dede2b6U,
  0xbc09e40dbe85037cU, 0x3ca6a0453d93877fU, 0xbd845bd5bd3f3a6aU, 0x3d64b848bd508f2fU,
  0x3d82eea03dade92aU, 0x3d8cba713d81aa3bU, 0xbe0fe3563d5c91efU, 0xbd870ee93de91110U,
  0xbdff8834be7962c5U, 0xbdd64dadbe4bfcc9U, 0xbb42a9813b0850f0U, 0xbd9f98cdbdab4b37U,
